#version: 0.2
t h
i n
e d</w>
a n
th e</w>
o u
e r</w>
in g</w>
t o</w>
e r
h e</w>
an d</w>
a r
h i
a t</w>
r e
w a
o n
s t
e n
h a
o f</w>
o r
i n</w>
a l
i t
e n</w>
o n</w>
e l
r o
i t</w>
a c
wa s</w>
m e</w>
y o
yo u</w>
h er</w>
e s</w>
l y</w>
n o
a t
l o
l i
s he</w>
w h
o r</w>
s t</w>
hi s</w>
th at</w>
e a
v e</w>
b e
r i
l d</w>
a n</w>
g h
er e</w>
th e
' s</w>
t i
' t</w>
n 't</w>
i d</w>
s a
l e</w>
s i
u r
i s</w>
b u
s e</w>
m y</w>
h o
ou ld</w>
n e
ou t</w>
l e
w it
o m
i l
wit h</w>
a s</w>
ha d</w>
s e
gh t</w>
k e</w>
f or</w>
u n
l a
r a
on e</w>
m a
bu t</w>
d o
a b
t o
i c
c h
e v
hi m</w>
s h
k ed</w>
c a
p p
b e</w>
g o
s p
ou n
i r
d e
th er</w>
d o</w>
c o
al l</w>
e t</w>
s s</w>
d i
m o
en t</w>
no t</w>
d e</w>
no w</w>
t ed</w>
wh at</w>
the y</w>
a g
ac k</w>
sa id</w>
ha ve</w>
f ro
w e</w>
c h</w>
c e</w>
u p</w>
or e</w>
b o
v er</w>
t er</w>
lo o
th ing</w>
th is</w>
fro m</w>
k ing</w>
d s</w>
s o</w>
a s
ou r</w>
s u
w n</w>
c on
d id</w>
m i
r u
f e
s ed</w>
g h</w>
t a
j u
l ed</w>
c ould</w>
w ould</w>
s o
wa y</w>
t s</w>
ar e</w>
w ere</w>
i r</w>
d a
p o
i f</w>
e m
il l</w>
re a
li ke</w>
er s</w>
b ack</w>
w or
e ar
oun d</w>
th ere</w>
' d</w>
d ed</w>
el l</w>
e x
q u
ou gh</w>
h ea
t h</w>
n o</w>
l l</w>
in to</w>
in g
ju st</w>
wh en</w>
ab out</w>
at i
f a
p u
th en</w>
al ly</w>
s c
l ea
v er
a l</w>
m u
an t</w>
ac e</w>
f u
w hi
y es</w>
in d</w>
t ing</w>
the m</w>
d y</w>
c om
d ing</w>
g u
t ur
be en</w>
e e
f or
s om
ar d</w>
k now</w>
som e
o p
b y</w>
t w
y our</w>
t er
p ro
s el
o f
g e</w>
f i
o d</w>
p a
e c
do wn</w>
o ver</w>
r e</w>
l u
ho w</w>
' m</w>
ti me</w>
ag a
w i
t r
s ur
m ore</w>
. .
g et</w>
o ther</w>
p re
n ed</w>
on g</w>
d er</w>
v i
p ar
y s</w>
p l
si de</w>
f o
t ly</w>
c k</w>
e yes</w>
k s</w>
g i
m e
in e</w>
at e</w>
n i
sel f</w>
.. .</w>
p er
t y</w>
a f
e l</w>
the ir</w>
ic e</w>
hea d</w>
th in
pp ed</w>
c an</w>
g r
' re</w>
m an</w>
wh o</w>
y ing</w>
l ing</w>
ati on</w>
st o
u s</w>
s m
ri ght</w>
d er
s ho
o k</w>
g e
an y</w>
g a
f ore</w>
p e
ev er
ou ght</w>
be fore</w>
h an
ne w</w>
ev en</w>
ar ound</w>
el y</w>
m p
se e</w>
st ar
ca u
an y
v ed</w>
h ere</w>
s s
s h</w>
c lo
go ing</w>
f ir
g o</w>
ou r
th r
p s</w>
so me</w>
' ll</w>
lo w
wh ere</w>
v ing</w>
on ly</w>
ti on</w>
h el
of f</w>
w ill</w>
n a
c i
th an</w>
loo ked</w>
ab le</w>
t le</w>
ro o
on s</w>
t en
thr ough</w>
w ant</w>
ou s</w>
thin k</w>
n ing</w>
c u
h and</w>
b a
v o
m ar
j o
aga in</w>
to o</w>
f ace</w>
t e</w>
wa l
s hi
s w
l it
a way</w>
f t</w>
st ill</w>
roo m</w>
it y</w>
some thing</w>
f e</w>
co me</w>
s si
da y</w>
le t</w>
r y</w>
ea r</w>
e p
ing s</w>
g re
c ar
er ed</w>
e st
w an
af ter</w>
w ell</w>
h ear
as ked</w>
b l
th ought</w>
tw o</w>
ne ver</w>
an g
go od</w>
ev er</w>
en d</w>
st a
a d
at ed</w>
b r
an ce</w>
m in
c ha
' ve</w>
sur e</w>
c k
cau se</w>
h u
ma de</w>
go t</w>
t ri
s sed</w>
mu ch</w>
loo k</w>
ch ed</w>
m b
sh ed</w>
f in
wh y</w>
d u
w ard</w>
b el
tur ned</w>
s ha
g g
ac h</w>
b ro
g ra
mo st</w>
k new</w>
at h</w>
do or</w>
lit tle</w>
t al
l s</w>
be cause</w>
f el
en ed</w>
t u
w ar
t e
s k
f f
s it
ta ke</w>
ha pp
m an
m s</w>
ma ke</w>
c al
ever y
l ong</w>
fir st</w>
t ra
ac h
st e
fu l</w>
b le</w>
e ss</w>
i m
sa y</w>
en ce</w>
ca me</w>
c ed</w>
p ri
fel t</w>
b ed</w>
re e</w>
s on</w>
m on
d ar
to ok</w>
s er
a pp
k i
t ru
f ri
lo w</w>
c hi
bo dy</w>
f r
p la
s in
al i
wan ted</w>
o se</w>
ver y</w>
v es</w>
e st</w>
ne ed</w>
pu l
k no
ear s</w>
d d
st u
t ell</w>
p i
st r
d re
re ally</w>
c re
r ed</w>
b i
ha s</w>
con t
h e
han ds</w>
whi ch</w>
s en
pe op
it s</w>
s ing</w>
peop le</w>
re c
wa t
s li
c a</w>
sh ould</w>
ni ght</w>
w s</w>
wi th
th ough</w>
le ft</w>
whi le</w>
t ting</w>
vo ice</w>
m ed</w>
aga in
z e</w>
again st</w>
an other</w>
w om
la st</w>
l an
rea dy</w>
m ent</w>
li fe</w>
to ld</w>
m em
m es</w>
m om
j a
m at
ou s
p e</w>
e i
l ar
l es</w>
la u
fe w</w>
b rea
ag e</w>
i on</w>
wa ys</w>
p h
k ee
any thing</w>
in ed</w>
t t
be ing</w>
en ts</w>
no thing</w>
c ur
w ent</w>
e p</w>
h ind</w>
be hind</w>
ic k</w>
it e</w>
en ough</w>
com p
a m</w>
e d
s or
t ter</w>
se em
b ar
m or
c or
do es</w>
sa w</w>
ou se</w>
sh ou
d ea
ma y
un ti
mi ght</w>
fe el</w>
z ed</w>
t re
of f
th ings</w>
co l
d ra
g ir
pu t</w>
unti l</w>
o wn</w>
k a
th ose</w>
ne x
b ab
un der
w o
loo king</w>
pl ace</w>
m ind</w>
f ac
f ind</w>
an d
c la
w in
st er</w>
fo l
si l
li ght</w>
sp ec
be g
i e
may be</w>
e en</w>
on ce</w>
ever y</w>
il ed</w>
le ss</w>
fr on
g er</w>
c ked</w>
g en
ou th</w>
i l</w>
h un
bo th</w>
ha l
h ar
h er
mom ent</w>
h ouse</w>
nex t</w>
ch ing</w>
f ing
l at
lo ve</w>
al ways</w>
d ri
o ld</w>
ep t</w>
st ed</w>
ne ss</w>
st re
n er</w>
m y
wor k</w>
fron t</w>
ro ss</w>
f ound</w>
ha ir</w>
c er
st an
in ter
sto od</w>
p lea
ea n</w>
hi m
o h</w>
b re
ra i
k en</w>
ro w
him self</w>
with out</w>
ur e</w>
d r
hel p</w>
in side</w>
po in
mem b
w r
t able</w>
o l</w>
wom an</w>
fa ther</w>
e y</w>
at ing</w>
b ri
h ard</w>
ho me</w>
sa me</w>
or y</w>
si on</w>
l ly</w>
gi ve</w>
em p
ac k
d ly</w>
hear d</w>
mo ther</w>
f lo
m en</w>
s mi
c our
kee p</w>
an s</w>
every thing</w>
u l
i es</w>
e ach</w>
some one</w>
e y
ri ed</w>
m outh</w>
ar m</w>
op en</w>
ar ms</w>
d ro
an k</w>
seem ed</w>
ne e
shou l
c oun
g s</w>
be tter</w>
f re
ic k
sp o
b loo
th ree</w>
tr ying</w>
pul led</w>
p ed</w>
be tw
to ward</w>
m er
betw een</w>
s le
an sw
low ed</w>
n or
b ur
ex p
se con
y ears</w>
in st
sm all</w>
ach ed</w>
c ra
ac ross</w>
ou t
wa it
fe el
s es</w>
d ded</w>
st and</w>
ter ed</w>
v en</w>
fa mi
se t</w>
sin ce</w>
star ted</w>
un der</w>
t on
pp ing</w>
en ing</w>
k es</w>
al most</w>
smi le</w>
or s</w>
an i
al ready</w>
ga ve</w>
lau gh
c r
o b
par t</w>
p ic
u sed</w>
re memb
wor ds</w>
h ur
d one</w>
u p
re s</w>
mu st</w>
wal ked</w>
en ti
min u
t ou
p r
n u
g la
ca r</w>
at t
an ge</w>
w on
ar y</w>
m any</w>
do ing</w>
com ing</w>
tri ed</w>
wor ld</w>
c ho
to ge
hear t</w>
ous ly</w>
toge ther</w>
b ea
ka y</w>
el se</w>
re p
t en</w>
j e
the se</w>
c ou
le ar
my self</w>
qu est
der ed</w>
dar k</w>
se en</w>
sto p</w>
ro w</w>
di ff
el i
tur n</w>
bl ack</w>
tr y</w>
fe et</w>
o kay</w>
s at</w>
ma g
st i
fe c
no dded</w>
su pp
fa r</w>
or t</w>
hel d</w>
in s</w>
m ean</w>
m ing</w>
v a
y ed</w>
p ing</w>
gir l</w>
li ps</w>
lo t</w>
ti mes</w>
gh ts</w>
g ar
il led</w>
c l
se e
ho l
p as
re ali
an n
her self</w>
si g
mo ved</w>
ch ar
m il
h or
i ous</w>
y et</w>
gg ed</w>
fu lly</w>
clo se</w>
hea r</w>
c e
re st</w>
cal led</w>
sm iled</w>
g ed</w>
s qu
beg an</w>
a ir</w>
wa ter</w>
ssi on</w>
ta in</w>
wh o
lea ve</w>
i g
al so</w>
bel ie
po w
na me</w>
s y</w>
d ers</w>
de ci
f la
er ing</w>
ss ing</w>
m r
c all</w>
c lu
o l
w ee
g one</w>
tal k</w>
k ind</w>
bloo d</w>
b it</w>
bre ath</w>
o th
ge tting</w>
flo or</w>
t es</w>
t el
cour se</w>
w ing</w>
sa ys</w>
nee ded</w>
su ch</w>
tur e</w>
sh ing</w>
wor d</w>
bi g</w>
fri end</w>
d es</w>
tu ally</w>
b le
su dd
cont in
le an
di s
as k</w>
c en
fin ally</w>
ro l
po ssi
sho ok</w>
re as
pro bab
f f</w>
v en
al ong</w>
fing ers</w>
l on
g ri
whi sp
ph one</w>
b lu
probab ly</w>
secon d</w>
da m
an e</w>
lea st</w>
gre at</w>
contin u
v e
st s</w>
lat er</w>
ex c
gr ound</w>
y ea
be st</w>
sh u
happ ened</w>
de ep</w>
go d</w>
our s</w>
m ur
yea h</w>
pa st</w>
belie ve</w>
d en</w>
so on</w>
hal f</w>
c li
l in
th ro
m en
sto pped</w>
qu ick
s y
f le
ch est</w>
whi te</w>
re ached</w>
rea d</w>
ma king</w>
sor ry</w>
ir e</w>
da ys</w>
op ened</w>
mo ve</w>
fami ly</w>
sur pri
s ound</w>
do w</w>
em ent</w>
feel ing</w>
dea d</w>
di rec
ec t</w>
diff er
every one</w>
i de
mor ning</w>
b en
at ely</w>
fri en
o t</w>
en tly</w>
y oun
b bed</w>
w ea
b ra
li e</w>
ac t</w>
s low
a d</w>
any one</w>
p er</w>
h ell</w>
ver ed</w>
ta king</w>
b b
to p</w>
o ver
w o</w>
ba d</w>
ide a</w>
i mp
ta l</w>
no ti
quick ly</w>
a h</w>
stan ding</w>
r un
d ge</w>
in ing</w>
s oun
comp le
re n
a u
w il
f ted</w>
al e</w>
d ic
ir s</w>
ac ed</w>
m ine</w>
qu i
k ept</w>
for ward</w>
en ly</w>
c lea
t or
ti ons</w>
b er
e f
u se</w>
li ed</w>
l a</w>
i s
c are</w>
m p</w>
shoul der</w>
ar ed</w>
t or</w>
an c
d ou
sp ea
bo y</w>
r an</w>
s k</w>
st ri
en g
shi p</w>
slow ly</w>
g lan
wa ll</w>
ha ving</w>
b la
al one</w>
li st
on d</w>
a r</w>
bu il
on to</w>
sta y</w>
rememb er</w>
t ty</w>
n s</w>
clo sed</w>
sk in</w>
ca p
thin king</w>
st ru
gu y</w>
fo re
il ing</w>
n y</w>
minu tes</w>
plea se</w>
s la
a m
pl an
w ed</w>
wat ched</w>
ho ld</w>
poin t</w>
l er</w>
fir e</w>
rea l</w>
hi gh</w>
l ine</w>
fu ll</w>
on al</w>
bea u
in k</w>
out side</w>
at ten
b or
tal king</w>
wr ong</w>
l and</w>
ei ther</w>
sudd enly</w>
sc ho
ma y</w>
n a</w>
ati ons</w>
ch es</w>
on ed</w>
star ed</w>
p ur
er i
re sp
gh tly</w>
on es</w>
di sa
cha p
l or
ru n</w>
t un
f ine</w>
v el
le y</w>
s er</w>
fac t</w>
spec i
f li
mat ter</w>
th s</w>
under stand</w>
ha t
ne ar
ch ee
f al
p le</w>
ac tually</w>
th re
mo m</w>
lo st</w>
ss es</w>
ea d</w>
la r</w>
ne ck</w>
wa it</w>
d rea
k e
com m
p an
h on
fi ve</w>
wait ing</w>
t on</w>
c ro
han d
z z
di st
da d</w>
c king</w>
pa in</w>
sw e
l ou
s ent</w>
a w
who le</w>
m a</w>
war ds</w>
c at
g ing</w>
frien ds</w>
ag o</w>
chap ter</w>
m et</w>
d en
f our</w>
o c
youn g</w>
hur t</w>
wal k</w>
b ru
ch ec
blu e</w>
i a</w>
t ely</w>
ear ed</w>
st ing</w>
bo o
shi r
ta ken</w>
mr .</w>
s it</w>
cau ght</w>
differ ent</w>
pre tty</w>
fi g
si mp
car e
gu e</w>
n at
l un
d in
t ers</w>
al s</w>
di e</w>
g ro
inst ead</w>
laugh ed</w>
answ er</w>
ch ang
st ro
ca se</w>
i mag
co ld</w>
s mo
t om
fa st</w>
oth ers</w>
de sp
c ks</w>
bro ther</w>
e f</w>
m m
k ill</w>
c tion</w>
pro t
st om
lar ge</w>
mb er</w>
ang er</w>
w hat
t in
ga ze</w>
v y</w>
z ing</w>
ac ti
f ur
th ir
lean ed</w>
per fec
se ver
fin i
st ory</w>
win dow</w>
scho ol</w>
sc rea
p at
br ought</w>
d ev
qu ite</w>
b al
possi ble</w>
f ell</w>
loo ks</w>
st rai
en ty</w>
le gs</w>
chi l
ec ted</w>
hi t</w>
cha ir</w>
con si
low ing</w>
ch e
quest ion</w>
happ y</w>
c le</w>
star t</w>
sen se</w>
d el
d a</w>
n er
ch ri
ac c
in ten
de ath</w>
whisp ered</w>
k it
glan ced</w>
i ght</w>
sh ar
ste pped</w>
reas on</w>
c lear
mp ed</w>
ho pe</w>
c es</w>
sit ting</w>
ca l</w>
k er</w>
what ever</w>
hol ding</w>
th ank</w>
sho t</w>
in t</w>
continu ed</w>
s how</w>
to wn</w>
disa pp
app ro
ac ked</w>
sever al</w>
th an
so l
ch ange</w>
st or
so f
rep lied</w>
per son</w>
e s
di ed</w>
y ear</w>
ex pla
t y
ab o
c ity</w>
h ours</w>
co vered</w>
ex ac
wat ching</w>
me ant</w>
r ing</w>
fol lowed</w>
resp on
kno wn</w>
s na
per i
d ent</w>
pow er</w>
me di
un i
exac tly</w>
beau ti
par t
mo ving</w>
thro at</w>
re ma
run ning</w>
reali zed</w>
mon ey</w>
wat ch</w>
ma l</w>
en s</w>
ey e</w>
mb led</w>
f er
com for
gu ess</w>
su b
sle ep</w>
shir t</w>
se ar
ro l</w>
ho t</w>
gla ss</w>
v ic
p or
tru e</w>
o d
ha ps</w>
c ir
u su
gh ter</w>
per haps</w>
w e
s ing
for m
k ne
b il
bo ok</w>
pro mi
atten tion</w>
y el
th er
ki ss</w>
it ed</w>
dam n</w>
clo ser</w>
ch en</w>
beauti ful</w>
lon ger</w>
to day</w>
f l
n ice</w>
off ice</w>
shi t</w>
it i
hu man</w>
sta irs</w>
pro ble
tou ch</w>
s co
va mp
li ving</w>
gi ven</w>
sa ying</w>
gra bbed</w>
ch ance</w>
jo b</w>
l ate</w>
cu t</w>
c ing</w>
li ve</w>
gh t
se at</w>
ver s
pu shed</w>
bo t
sh ru
t ea
vi e
ex pre
c ru
gu n</w>
sc re
be side</w>
m ir
wom en</w>
r an
st ra
n ar
ste p</w>
j ack</w>
w ra
ti c</w>
at es</w>
i st</w>
cou ple</w>
der ing</w>
bu sin
p en
b ack
bab y</w>
deci ded</w>
p al
tur ning</w>
si gh
te en</w>
w el
c y</w>
re li
th ou
shoul ders</w>
ear ing</w>
dd le</w>
ton ight</w>
sh ort</w>
v ely</w>
j er
b lo
rol led</w>
ar ri
ti ve</w>
dou b
s ar
gh ten
m ic
clea r</w>
f ear</w>
v in
abo ve</w>
pre ssed</w>
lo ved</w>
la y</w>
kit chen</w>
n ear</w>
f illed</w>
cont rol</w>
v el</w>
al e
re l
s un
f ree</w>
th u
to m</w>
t t</w>
g row
t ears</w>
lea ving</w>
si ster</w>
ul t</w>
me et</w>
ur ing</w>
po sit
tt en</w>
b it
ro se</w>
ei ght</w>
p hi
pas sed</w>
dro pped</w>
for m</w>
stre et</w>
ro ad</w>
spo ke</w>
sc u
sk y</w>
l en</w>
to wards</w>
ho w
p t</w>
po li
s ou
g y</w>
wor king</w>
b and</w>
shu t</w>
par ents</w>
si des</w>
z y</w>
ob vi
or t
se cre
fi ght</w>
busin ess</w>
v al
t ar
rai sed</w>
fi ed</w>
i e</w>
bu l
u m</w>
f fe
any way</w>
in t
ur ed</w>
sil ence</w>
tw enty</w>
ag ed</w>
chi ld</w>
so ft</w>
i ly</w>
tr an
t tered</w>
dre w</w>
go tten</w>
see ing</w>
with in</w>
br ing</w>
jo h
ea sy</w>
ra ther</w>
up on</w>
m on</w>
ta in
quest i
in v
m el
buil ding</w>
g l
sor t</w>
ing ly</w>
fo od</w>
s .</w>
dar k
gr y</w>
y our
f un
im medi
c ri
dre ss</w>
i d
b ir
comple tely</w>
gre en</w>
f lu
in a</w>
ic i
wal king</w>
cor ner</w>
il s</w>
pic ked</w>
re co
noti ced</w>
n e</w>
sa fe</w>
tru th</w>
st er
dre n</w>
spea k</w>
st ea
ro r</w>
str ong</w>
ed ge</w>
strai ght</w>
b s</w>
ste ps</w>
t ee
chil dren</w>
gi ving</w>
f all</w>
ra id</w>
wait ed</w>
b ly</w>
w er</w>
i c</w>
h our</w>
li fted</w>
st one</w>
c row
in ning</w>
wi fe</w>
supp o
ea si
g an</w>
chang ed</w>
th es</w>
gr ou
star ing</w>
dea l</w>
sh es</w>
en jo
su n</w>
ac tion</w>
wee k</w>
war m</w>
stom ach</w>
ic al</w>
mi ss</w>
si x</w>
k illed</w>
g on</w>
ck et</w>
o pp
happ en</w>
your self</w>
re turned</w>
near ly</w>
con cer
ag re
y e</w>
d eli
ne i
wh e
gu ys</w>
di es</w>
thou ghts</w>
tr ou
pr in
co ffe
af raid</w>
gu ar
sigh ed</w>
imp ort
el d</w>
kno wing</w>
l en
wor ked</w>
pu ll</w>
i se</w>
c t</w>
wo l
wi de</w>
v an
qui et</w>
fing er</w>
con vers
clo thes</w>
be come</w>
e t
f ra
see m</w>
gr and
e ath</w>
y er</w>
tee th</w>
brea k</w>
s al
pl aced</w>
s on
do ws</w>
answ ered</w>
expre ssion</w>
ba g</w>
b at
d uring</w>
suppo sed</w>
coffe e</w>
fo ot</w>
l y
x ed</w>
be d
an k
at or</w>
minu te</w>
wor ry</w>
g ge
enti re</w>
m it
de sk</w>
gir ls</w>
ar e
si ght</w>
lor d</w>
i an</w>
re ly</w>
won dered</w>
si r</w>
than ks</w>
ma kes</w>
gen er
oun ded</w>
perfec t</w>
fo o
sel ves</w>
gg ing</w>
immedi ately</w>
e ts</w>
pla y</w>
th y</w>
tel ling</w>
emp ty</w>
proble m</w>
m ee
m b</w>
some times</w>
af ter
par ti
surpri sed</w>
it ies</w>
ar t</w>
d red</w>
sc en
b all</w>
fig ure</w>
how ever</w>
e ce</w>
ben eath</w>
ck y</w>
da u
tru st</w>
al though</w>
it h</w>
bar ely</w>
f il
cer tain</w>
la dy</w>
he y</w>
poin ted</w>
col le
fini shed</w>
mi ddle</w>
shru gged</w>
or der</w>
pl an</w>
el s</w>
app eared</w>
at s</w>
ti ght</w>
e mo
kno ws</w>
ev ed</w>
a ss</w>
qu ie
part ment</w>
ki ssed</w>
bl in
j a</w>
ch u
do w
sp ir
nu mber</w>
sa m</w>
vie w</w>
ing ing</w>
inter est
ter ri
be came</w>
it ion</w>
ach ing</w>
hea vy</w>
simp ly</w>
ha ll</w>
m oun
lau gh</w>
c ted</w>
mon ths</w>
s an
t an
sli d</w>
w ind</w>
g er
c an
wi sh</w>
p id</w>
su l
hun dred</w>
qu ick</w>
ghten ed</w>
ton gue</w>
fi f
import ant</w>
c ally</w>
form ation</w>
hea ded</w>
dr ink</w>
sp ace</w>
k il
ea l</w>
wo o
pa in
convers ation</w>
re turn</w>
c el
vo l
fu sed</w>
h en
es ca
lo r</w>
grou p</w>
pl ac
exc ept</w>
fami li
p ho
ear th</w>
st e</w>
s wi
tr ac
d on</w>
w earing</w>
li ked</w>
no se</w>
sli ghtly</w>
g es</w>
ne y</w>
sp ent</w>
ad ded</w>
sig n</w>
ba r</w>
l it</w>
se cur
com es</w>
w ned</w>
se tt
t emp
gen tly</w>
gi c</w>
h ers</w>
wr it
str ange</w>
dau ghter</w>
j ect</w>
tin y</w>
no r</w>
cer tain
soun ded</w>
t a</w>
a head</w>
din ner</w>
ee l</w>
m med</w>
tom or
ce ss
te st</w>
tomor row</w>
n one</w>
pul ling</w>
s sa
direc tion</w>
mm er</w>
pre s
r y
ter ing</w>
do c
ali ve</w>
any more</w>
soun ds</w>
h y
li ghts</w>
reco g
d dy</w>
are a</w>
ey e
do ors</w>
stre t
in ned</w>
ic ally</w>
wa ke</w>
le ss
sc i
wee ks</w>
k y</w>
de ep
tou ched</w>
bel i
th ick</w>
surpri se</w>
t one</w>
an a</w>
o w</w>
li p</w>
- -</w>
d ir
ru p
sof tly</w>
ki ds</w>
ex peri
trou ble</w>
sti c</w>
speci ally</w>
sp ed</w>
some where</w>
bo x</w>
at u
tw i
fre y
kne es</w>
pi ece</w>
bro ken</w>
i m</w>
some how</w>
l ying</w>
stu ff</w>
pa per</w>
gu ard</w>
j ack
quie tly</w>
for ce</w>
l o</w>
al ity</w>
si ve</w>
dri ve</w>
be y
c ent</w>
frey ja</w>
swe et</w>
ear ly</w>
k ni
ma ge</w>
c us</w>
ati ve</w>
ss a</w>
de ser
e at</w>
bb ing</w>
al ing</w>
d ang
bey ond</w>
rememb ered</w>
e specially</w>
sit u
sing le</w>
s low</w>
st y</w>
questi ons</w>
sp ar
ju li
wor se</w>
b li
bro ke</w>
he sit
wan ts</w>
in formation</w>
de fin
tre es</w>
re lea
poli ce</w>
it al</w>
cra zy</w>
chee k</w>
wea p
m ents</w>
co ver</w>
t ree</w>
re ach</w>
chec k</w>
dark ness</w>
con ne
secon ds</w>
ti red</w>
lo cked</w>
pa used</w>
bo ard</w>
r a</w>
su gge
ga me</w>
it u
wra pped</w>
gra y</w>
se x</w>
sil ent</w>
fa v
hu s
ou d</w>
joh n</w>
sc ri
do m</w>
stu pid</w>
th i
re min
dre ssed</w>
man aged</w>
pr acti
m ale</w>
j en
al ed</w>
m it</w>
dist ance</w>
en ded</w>
seem s</w>
ale x</w>
wal ls</w>
fol low</w>
thre w</w>
won der</w>
ser v
hu ge</w>
bed room</w>
mee ting</w>
sc ar
vamp ire</w>
wor ried</w>
recog ni
de f
u sing</w>
bro wn</w>
exp ected</w>
d ru
wo od</w>
ne ws</w>
b right</w>
me ans</w>
s wal
be th</w>
mb ling</w>
w ri
doub t</w>
si c</w>
for ced</w>
er y</w>
c ess</w>
be at</w>
re la
he at</w>
un g</w>
un t</w>
of ten</w>
crow d</w>
un k</w>
m al
squ ee
v il
list en</w>
k in
th ous
li er</w>
sm iling</w>
a ma
an gry</w>
gh ting</w>
th or
t ted</w>
v id</w>
p lu
mar k</w>
ann a</w>
co ol</w>
e u
ig nor
no on</w>
sha king</w>
y n</w>
ev ening</w>
par ty</w>
hus band</w>
wa r</w>
si ble</w>
th ered</w>
cat ch</w>
t ally</w>
posit ion</w>
mr s.</w>
em er
promi se</w>
ba th
agre ed</w>
t ab
v al</w>
sur r
n ic
p ick</w>
arri ved</w>
so lu
lou d</w>
sit e</w>
certain ly</w>
fur ther</w>
gla d</w>
bel ow</w>
ner v
on y</w>
low er</w>
rel ati
do g</w>
e ve</w>
whe ther</w>
po cket</w>
comfor table</w>
bo ys</w>
ni e</w>
ser ious</w>
k ey</w>
ro ck</w>
sm ell</w>
pa y</w>
n g
app ar
kno w
comp any</w>
p es</w>
t ro
do or
re pe
fi eld</w>
for get</w>
stru gg
s word</w>
t all</w>
spec t</w>
mu sc
f ic
as su
pla ying</w>
de si
o s</w>
att emp
sur vi
si st
th ers</w>
kee ping</w>
ver ing</w>
j as
li k
ear lier</w>
m ly</w>
ti es</w>
d om
the m
k id</w>
t el</w>
desp er
situ ation</w>
hun g</w>
ha el</w>
cap tain</w>
c lar
clear ly</w>
dow n
drea m</w>
in cre
sa ve</w>
lu c
rea ding</w>
f ru
them selves</w>
usu al</w>
sol di
ja ke</w>
cho ice</w>
y si
d ate</w>
p ack</w>
sw ee
li ved</w>
han ded</w>
pp er</w>
sna pped</w>
gr in</w>
stre ng
su c
ac ks</w>
z en</w>
fu n</w>
f it</w>
doc tor</w>
ssi ve</w>
ha u
obvi ously</w>
in de
pri v
so ci
li sh</w>
as king</w>
f ar
ma gic</w>
ic ked</w>
for tun
a partment</w>
wol f</w>
cal m</w>
dd en</w>
a po
sle ep
care fully</w>
n ick</w>
re n</w>
pa ir</w>
sc ra
plea sure</w>
sc ent</w>
sli pped</w>
an ti
ge ts</w>
bot tom</w>
i ously</w>
usu ally</w>
clea n</w>
sho wed</w>
nor mal</w>
chi n</w>
ju mped</w>
ja mes</w>
d on
easi ly</w>
bu n
en tered</w>
nat ur
at ure</w>
st rea
cro ssed</w>
a vo
r ying</w>
se x
p il
mi d
ho ped</w>
me an
expla in</w>
st ate</w>
sel y</w>
ta kes</w>
sh el
gre w</w>
th ed</w>
cli mb
famili ar</w>
pre par
ir ed</w>
il ity</w>
gr inned</w>
cen ter</w>
mi sta
ho sp
or ed</w>
g ab
pic ture</w>
r ound</w>
me ssa
l an</w>
exp lo
li ves</w>
de man
cu ri
en er
g un
en a</w>
eye bro
c ab
spo t</w>
desp ite</w>
secre t</w>
ho ping</w>
it self</w>
chu ck
. .</w>
p ath</w>
d an
off ic
it ely</w>
se a</w>
know le
li es</w>
lo se</w>
hu man
thir ty</w>
tal ked</w>
for med</w>
di sp
imag ine</w>
pa u
su it</w>
le tting</w>
fu ture</w>
o w
c ell</w>
shou ted</w>
bu tt
mar ried</w>
ev en
laugh ing</w>
b en</w>
lik ely</w>
m ate</w>
ha te</w>
fa ir</w>
ri es</w>
y a</w>
pa ss</w>
bath room</w>
ter min
lean ing</w>
le g</w>
off ered</w>
after noon</w>
brea thing</w>
p un
d ying</w>
diff ic
wor th</w>
shar p</w>
streng th</w>
ra ge</w>
v an</w>
aw are</w>
w et</w>
f er</w>
th in</w>
mu ttered</w>
sou l</w>
da m</w>
rema ined</w>
do l
w ore</w>
att ack</w>
al lowed</w>
me tal</w>
e mi
reali ze</w>
da vid</w>
sha ll</w>
gr ace</w>
g or
p ra
li on</w>
fro wned</w>
beg inning</w>
s se
ex a
hi de</w>
prot ec
d ry</w>
coun ter</w>
simp le</w>
chee ks</w>
s end</w>
mi ke</w>
be sides</w>
co o
hel ped</w>
wa ist</w>
defin itely</w>
sear ch</w>
oun ds</w>
ph ysi
mar y</w>
st ly</w>
mu sic</w>
p ati
in vol
ef for
sta yed</w>
b an
k ar
tea m</w>
mem ory</w>
g al
li am</w>
pu bli
ma ster</w>
hand le</w>
si ck</w>
dr .</w>
tur ns</w>
tru ck</w>
v ar
im ed</w>
ag es</w>
dro p</w>
nei ther</w>
gl ance</w>
s n
w eight</w>
sc ared</w>
v ers</w>
fu ck</w>
bo w</w>
se ven</w>
cla ss</w>
y le</w>
con vin
mic hael</w>
go ld</w>
ch ur
r it
ff ed</w>
bra in</w>
as ks</w>
sp e
fol lowing</w>
fi ghting</w>
ol der</w>
hi gh
nee ds</w>
d ding</w>
c ried</w>
dang er
kni fe</w>
expla ined</w>
mi ssion</w>
v ir
ne w
wi se</w>
mur mur
noti ce</w>
de ta
er ful</w>
an ci
c ry</w>
ho od</w>
b as
atu res</w>
a side</w>
hor se</w>
di scu
sh e
con fi
g n
mo v
stan tly</w>
ma in</w>
parti cu
sett led</w>
re si
t ex
mi ssed</w>
gu il
gu i
d ance</w>
fore head</w>
e k</w>
fore ver</w>
sp read</w>
relati on
sil ver</w>
de stro
pre ten
oun ding</w>
scre en</w>
ener gy</w>
hosp ital</w>
ma x</w>
su ff
dro ve</w>
f ting</w>
on ing</w>
d ani
rec ei
an ed</w>
fal ling</w>
a part</w>
z a
lear ned</w>
cal ling</w>
foo t
at e
a mer
st are</w>
app re
w ed
st ore</w>
si ons</w>
op er
mom ents</w>
com pu
hea d
cu sed</w>
dr in
mem or
hal l
si gh</w>
d an</w>
tran s
s ati
l eng
w l</w>
ra in</w>
mb le</w>
ja w</w>
ck er</w>
thir d</w>
l in</w>
speci al</w>
lo c
w ear</w>
tu res</w>
k en
appar ently</w>
lo ck</w>
po lit
jas on</w>
fle sh</w>
go es</w>
under stood</w>
car ried</w>
op ening</w>
ri de</w>
p ale</w>
de t
in clu
sho ck</w>
secur ity</w>
pu tting</w>
bu sy</w>
as h</w>
ri ver</w>
brea k
ho le</w>
e my</w>
lea d</w>
ge st
k a</w>
prot ect</w>
to w
t ation</w>
qu een</w>
boo ks</w>
pan ts</w>
ca mer
gg er</w>
in ted</w>
j ac
el led</w>
la p
pro fe
c up</w>
in di
ma j
stu ck</w>
per s
han ging</w>
bat tle</w>
sha ke</w>
go l
est er
bot tle</w>
sudd en</w>
amer ic
won dering</w>
esca pe</w>
reli ef</w>
or g
wan ting</w>
qu ar
ic es</w>
k el
ne cess
a ir
ou gh
mil es</w>
disapp eared</w>
om s</w>
list ening</w>
po se</w>
chri st
pu sh</w>
d ness</w>
ni ght
star ting</w>
vi sion</w>
sp i
sti an</w>
ac y</w>
k in</w>
b er</w>
ra di
b by</w>
ef fec
sig n
exc it
c rea
danger ous</w>
je ans</w>
no ise</w>
ha ted</w>
d ear</w>
fig ured</w>
wil ling</w>
lear n</w>
sho p</w>
st le</w>
even tually</w>
exp ect</w>
j ec
screa med</w>
cou ch</w>
cont act</w>
br an
guar ds</w>
ab solu
mi e</w>
fi c</w>
le vel</w>
p h</w>
spea king</w>
d ings</w>
min i
ne l</w>
thous and</w>
coun t</w>
.. ..</w>
s a</w>
su sp
in ation</w>
bor n</w>
in es</w>
hor ri
pe ter</w>
sati s
win dows</w>
su mmer</w>
el ec
c y
ex i
s at
in e
mu l
un less</w>
u n</w>
a mu
la id</w>
vi ol
mp ing</w>
d or
diffic ult</w>
bo dies</w>
pau l</w>
pow erful</w>
o li
em ma</w>
mi ssing</w>
en tr
ri ck</w>
po or</w>
co at</w>
consi dered</w>
fre sh</w>
coun try</w>
opp o
care ful</w>
g ate</w>
plac es</w>
off er</w>
apo lo
ani c</w>
th om
fre e
yel led</w>
am ong</w>
d ence</w>
sh or
ch an
m ach
p ers</w>
happ ening</w>
f an
ho tel</w>
li c
bur st</w>
un cle</w>
sleep ing</w>
ti e</w>
for d</w>
w led</w>
messa ge</w>
low s</w>
g li
b ent</w>
ge or
grow ing</w>
smo ke</w>
lu cky</w>
st ation</w>
gri p</w>
ac king</w>
sho wer</w>
exp ec
ss y</w>
hall way</w>
em bar
ac ted</w>
f as
desi re</w>
co lor</w>
mir ror</w>
pro du
pro vi
relation ship</w>
row ed</w>
cha se</w>
pers onal</w>
en ding</w>
cl en
tru ly</w>
na h</w>
a dam</w>
comm un
r at
acc ep
respon se</w>
shi fted</w>
re qu
le g
w ine</w>
comple te</w>
as le
ey ed</w>
asle ep</w>
sar ah</w>
supp ose</w>
s wa
n ers</w>
cha l
s en</w>
v in</w>
sp end</w>
ma d</w>
dri ver</w>
t te</w>
ar gu
ach el</w>
str on
com man
fin ding</w>
ar r
beg in</w>
at er</w>
st on</w>
vi sit</w>
obvi ous</w>
tra vel
y ours</w>
s now</w>
s ea
re fle
laugh ter</w>
mo vi
pre sent</w>
ad mit</w>
ei gh
murmur ed</w>
v a</w>
direc tly</w>
feel ings</w>
r achel</w>
vi sit
wa ved</w>
gi e</w>
sh are</w>
tri p</w>
t em
no te</w>
wit ch</w>
ser ved</w>
pres ence</w>
priv ate</w>
de m
bil ity</w>
fo cus</w>
fun ny</w>
st ick</w>
ssi e</w>
inst ru
e than</w>
sha dow</w>
twi sted</w>
ste m</w>
th row</w>
fac es</w>
ac ing</w>
fal len</w>
ri age</w>
embar ra
wa ve</w>
clo ck</w>
m ming</w>
ar ds</w>
we ir
st al
i res</w>
ho o
experi ence</w>
wi ld</w>
ru bbed</w>
w in</w>
pla yed</w>
ti l
g ru
as sa
appre ci
pu shing</w>
g lar
tur ed</w>
el le</w>
fl at</w>
con fused</w>
possi bly</w>
har der</w>
low ered</w>
hun ter</w>
ta ste</w>
rec or
hi ps</w>
gener al</w>
spe ed</w>
qu e</w>
bur ning</w>
bo at</w>
de termin
lin es</w>
lun ch</w>
nerv ous</w>
stret ched</w>
cur ren
k ers</w>
fi sh</w>
ati c</w>
inv est
k o
ea se</w>
la w</w>
cu l
any where</w>
el e
hea ds</w>
a k</w>
oun ced</w>
cla ire</w>
fo rest</w>
swal lowed</w>
vi a</w>
rol ling</w>
ber t</w>
sur face</w>
ex cu
pre ss</w>
compu ter</w>
si ze</w>
beli eved</w>
im possible</w>
tr a</w>
natur al</w>
bur ned</w>
hi dden</w>
ci p
ab ly</w>
al ex
d y
lea ther</w>
appro ached</w>
jo in</w>
remin ded</w>
sho es</w>
knowle dge</w>
di str
in si
p our
gra b</w>
cor rec
fin al</w>
mo on</w>
no body</w>
go ver
in k
chec ked</w>
human s</w>
inter est</w>
wo ke</w>
su rely</w>
j on
ab ility</w>
so phi
fru str
th ru
jack et</w>
oc ca
b are</w>
entr ance</w>
in ess</w>
po sse
sha dows</w>
clu b</w>
al low</w>
inter rup
z i
no d</w>
c at</w>
ti on
j our
p ink</w>
n ur
pa id</w>
blin ked</w>
ser iously</w>
ta ins</w>
li st</w>
ran g</w>
ann y</w>
deci sion</w>
har dly</w>
vil la
ev il</w>
li d</w>
wi shed</w>
cla imed</w>
interest ed</w>
vamp ires</w>
o th</w>
ar my</w>
lo y
si de
me dic
me ss</w>
n t</w>
for th</w>
s and
lo a
ar ti
ar i
invol ved</w>
m as</w>
climb ed</w>
continu e</w>
sy stem</w>
hear ing</w>
dri ving</w>
fini sh</w>
won der
en d
chur ch</w>
sig ned</w>
b on
or dered</w>
m ous</w>
gla sses</w>
thom as</w>
m or</w>
st age</w>
c in
door way</w>
rep or
be er</w>
bri ef
est s</w>
whisp er</w>
d or</w>
sh a</w>
scen e</w>
concer ned</w>
m er</w>
s lu
l li
wel come</w>
go od
t at
la p</w>
memor ies</w>
go d
promi sed</w>
ig n
hi story</w>
u h</w>
thre at
gh o
c ross</w>
hen ry</w>
pal m</w>
cir cle</w>
bo l
a unt</w>
mp s</w>
dani el</w>
b ite</w>
od d</w>
fo cused</w>
w est</w>
l ing
perfec tly</w>
n ine</w>
cr ying</w>
nor th</w>
nei gh
de mon</w>
yel low</w>
list ened</w>
jo e</w>
bu y</w>
deman ded</w>
i mage</w>
par k</w>
inde ed</w>
un able</w>
b ear</w>
stru ck</w>
i sa
ac ci
em ents</w>
in no
ju d
f ought</w>
f rea
buil t</w>
la w
less ly</w>
pl ate</w>
mo stly</w>
clear ed</w>
pi ec
de scri
st at
break fast</w>
si s</w>
s ity</w>
anc es</w>
effor t</w>
re aching</w>
ca st</w>
is su
tw ice</w>
ou l
se par
del ic
cir c
s ni
e m</w>
feel s</w>
ru sh</w>
for gotten</w>
pho to
fa ster</w>
le ts</w>
disapp o
ann e</w>
d anger</w>
be t</w>
terri ble</w>
il es</w>
hea ding</w>
jo ined</w>
ce iling</w>
ga r</w>
sla mmed</w>
stor m</w>
to ssed</w>
enjo y</w>
fl ying</w>
screa m</w>
to tally</w>
b ones</w>
en t
fac ed</w>
se th</w>
soldi ers</w>
t ch</w>
a i</w>
musc les</w>
gi gg
wea k</w>
pre sen
sho ved</w>
et te</w>
re gre
ga sped</w>
ri ch
b ag
hi ding</w>
n on
he al
h i</w>
hel lo</w>
g lo
prepar ed</w>
is land</w>
weir d</w>
in stantly</w>
war ri
def en
wed ding</w>
pre ci
fle w</w>
f ly</w>
low ers</w>
nat ure</w>
re sted</w>
piec es</w>
s our
row ing</w>
sy m
posit i
on i
sw ung</w>
mon th</w>
op s</w>
ty pe</w>
cir cu
an no
0 0</w>
s outh</w>
su per
oppo site</w>
brea the</w>
woo den</w>
ri f
el ev
p it
k icked</w>
w ound</w>
lar s</w>
fav or
ri sk</w>
woo ds</w>
ro ll</w>
ac he</w>
gra ss</w>
si x
af fec
ju st
weap on</w>
lu ci
be ach</w>
ignor ed</w>
ev id
bla de</w>
gab ri
kil ling</w>
drea ms</w>
p anic</w>
cen tr
sk ir
par king</w>
boo ts</w>
ad mit
bro thers</w>
ra y</w>
te a</w>
d ition</w>
gro wn</w>
necess ary</w>
swe at</w>
pi er
ex ten
absolu tely</w>
bo y
loo se</w>
k ate</w>
ry an</w>
pro per
brea king</w>
m c
cre ature</w>
ru shed</w>
in ch</w>
te ch
ea st</w>
han g</w>
mo tion</w>
fol ded</w>
e ating</w>
d ents</w>
y ester
st ic
men tion</w>
fre n
ta il</w>
ri sing</w>
interest ing</w>
bur n</w>
wi d
st af
b ill</w>
sur ed</w>
b low</w>
sa d</w>
lea ves</w>
pl ans</w>
stea dy</w>
fir m</w>
yester day</w>
sh ee
k y
excu se</w>
s m</w>
na ked</w>
z e
c tions</w>
oth er
or tun
c and
ti ghtly</w>
wh ose</w>
ama zing</w>
leng th</w>
publi c</w>
squee zed</w>
m enti
s p</w>
y an
an im
butt on</w>
- -
opp ortun
su s</w>
fi st</w>
wonder ful</w>
ac her</w>
mov ement</w>
s an</w>
c ard</w>
con centr
vi sible</w>
in c
re fu
hi ll</w>
bloo dy</w>
mat t</w>
ex hau
ri ch</w>
la ke</w>
m ea
wor st</w>
fe male</w>
t ent</w>
fa ir
gen tle</w>
car ry</w>
war ning</w>
ja mie</w>
stor ies</w>
s ong</w>
cl ou
gre e
cr y
wri st</w>
d anc
an x
bru shed</w>
mar k
se y</w>
st ers</w>
d un
co le</w>
f y</w>
ti ed</w>
s lo
d iti
gol den</w>
gre y</w>
fa ult</w>
y ard</w>
or ig
fif teen</w>
p sy
ang el</w>
lu ck</w>
screa ming</w>
sa fe
bl es</w>
el ess</w>
bre e
bl ack
cau sed</w>
bri dge</w>
dis gu
sle pt</w>
re ve
cour t</w>
ter n
hi l
ver se</w>
in dic
st an</w>
th o
po ol</w>
re moved</w>
concer n</w>
d ged</w>
per son
ati onal</w>
ri se</w>
fortun ately</w>
hun gry</w>
po sed</w>
fu cking</w>
sub ject</w>
re sul
a st
pl ane</w>
con fu
stu died</w>
ur a</w>
c s</w>
a i
happ ens</w>
sc ious</w>
repe ated</w>
wor ks</w>
colle ge</w>
ag ree</w>
re gi
h ou
up set</w>
offic er</w>
nu mb
pe ace</w>
sp ee
mista ke</w>
car rying</w>
relea sed</w>
dir t</w>
star t
re action</w>
c er</w>
ta u
1 9
fi re
ci l</w>
gu e
s nor
el ed</w>
arr ang
sear ching</w>
easi er</w>
char ge</w>
ac ting</w>
plan ned</w>
t ter
t ors</w>
b ought</w>
it ted</w>
chuck led</w>
char lie</w>
lo sing</w>
c o</w>
thin ks</w>
w ings</w>
br inging</w>
c her</w>
be ar
dra wn</w>
lan ded</w>
com b
tt ers</w>
hu h</w>
ti p</w>
si mon</w>
deci de</w>
spec ted</w>
ca su
t tle</w>
int ro
hesit ated</w>
sha pe</w>
ga thered</w>
weap ons</w>
sugge sted</w>
emo tions</w>
writ ten</w>
ec ho
acc ept</w>
re sta
ad van
resta ur
r on
lea ding</w>
u e</w>
smo oth</w>
a sh
sc rat
re fused</w>
b one</w>
near by</w>
cal ls</w>
ed ly</w>
se ment</w>
cur led</w>
sta r</w>
b ye</w>
geor ge</w>
jer ked</w>
ani mal</w>
ju mp</w>
re gar
m ou
ma il</w>
bit ch</w>
deep er</w>
g ly</w>
ba se</w>
anc y</w>
ki e</w>
rich ard</w>
re ality</w>
o '
ck ets</w>
sho o
s ca
shi ft</w>
favor ite</w>
le tter</w>
dir ty</w>
sta ying</w>
sm iles</w>
bl ank
sh ared</w>
dou ble</w>
o o
ro of</w>
oun t</w>
pre gn
sho wing</w>
lu ke</w>
prin ce</w>
tou ching</w>
li g
f light</w>
k n
sho cked</w>
mo ti
sm art</w>
tra in</w>
tr ack</w>
avo id</w>
invest ig
re gu
wor n</w>
f ill</w>
fing er
fif ty</w>
plea sed</w>
st un
eyebro ws</w>
every where</w>
ki ssing</w>
fla shed</w>
lo cal</w>
aw k
supp ort</w>
g as</w>
th ering</w>
mo od</w>
enti rely</w>
spo ken</w>
kno cked</w>
str ang
bu s</w>
ad v
ha m</w>
nar row</w>
oc cu
dom in
op ed</w>
ro oms</w>
sa ved</w>
war m
other wise</w>
recogni zed</w>
g her</w>
clo sing</w>
sp r
serv ice</w>
sp un</w>
intro du
deep ly</w>
li ly</w>
sa l</w>
st ep
f ts</w>
j an
p y</w>
gi ant</w>
sc an
s ation</w>
hea vi
or din
li br
grow led</w>
car s</w>
v ul
con scious</w>
warm th</w>
sil ently</w>
ac e
d al
ba st
tu al</w>
pas sing</w>
tra ining</w>
eri c</w>
clen ched</w>
du st</w>
y or
te en
emi ly</w>
bel ly</w>
ke ys</w>
in n</w>
staf f</w>
rep ly</w>
e qu
attemp t</w>
pur pose</w>
itu de</w>
ex per
j un
in ci
pl es</w>
i di
sho ot</w>
na mes</w>
experi en
moun tain</w>
pro ve</w>
dis covered</w>
a wake</w>
vi ous</w>
t le
hon ey</w>
sen ding</w>
ex tra</w>
answ ers</w>
r ough</w>
x es</w>
exc ited</w>
so a
im pre
l ack</w>
in ti
y ers</w>
de ck</w>
opportun ity</w>
shi ps</w>
kne e</w>
menti oned</w>
gi ft</w>
el la</w>
dra gged</w>
beau ty</w>
dr unk</w>
t age</w>
n ate</w>
mil it
clu t
bo ther</w>
hel ping</w>
men tal</w>
surr ounded</w>
bel t</w>
t in</w>
na med</w>
ic a</w>
bu ried</w>
en emy</w>
sm ir
de st</w>
consi der</w>
dra wing</w>
proble ms</w>
shu d
p ort</w>
bi e</w>
desper ate</w>
s and</w>
bel on
writ ing</w>
pl enty</w>
youn ger</w>
lo gan</w>
physi cal</w>
imag ined</w>
poin ting</w>
brea thed</w>
interrup ted</w>
th a</w>
m ac
christ mas</w>
bro w</w>
nar rowed</w>
stre ss</w>
ach es</w>
pr oud</w>
hor ses</w>
apolo gi
ev i
comm on</w>
st eel</w>
pro cess</w>
inst ant</w>
ca mp</w>
wa ves</w>
b ank</w>
sm al
excit ement</w>
t it
se tting</w>
ve hi
fa int</w>
g row</w>
gro aned</w>
an ts</w>
t ory</w>
v ity</w>
pic tures</w>
ser ve</w>
ti ghtened</w>
ea sed</w>
dra w</w>
do zen</w>
bri ef</w>
lan gu
bo ss</w>
wil liam</w>
cor ri
stre ets</w>
hel p
r ace</w>
fr an
mar riage</w>
e ding</w>
fa ded</w>
determin ed</w>
movi e</w>
my ster
thu mb</w>
cre w</w>
hon est
gi ves</w>
pre ssing</w>
an ds</w>
vo ices</w>
sp a
joh n
deta ils</w>
v ag
tw el
fi le</w>
ha w
zz y</w>
v i</w>
wi ped</w>
v ani
si mil
admit ted</w>
juli a</w>
rep ort</w>
g y
un ted</w>
ac comp
t v</w>
ex tre
wee k
li m
f our
villa ge</w>
p ee
star s</w>
incre di
fla sh</w>
hu g</w>
ro pe</w>
anci ent</w>
drin king</w>
particu lar</w>
or ders</w>
ro y
mach ine</w>
differ ence</w>
safe ty</w>
p in
ti m</w>
squ are</w>
det ec
pres sure</w>
du e</w>
stu dy</w>
f lowers</w>
orig in
i or</w>
b ell</w>
gr ate
sk i
sex y</w>
curi ous</w>
lo ts</w>
mur der</w>
chi ef</w>
on er</w>
go ds</w>
yor k</w>
gover n
ab and
expec ting</w>
pa use</w>
comfor t</w>
rela xed</w>
b oun
lo g
col lap
dra gon</w>
kno ck</w>
tra il</w>
elev ator</w>
lar ly</w>
d are</w>
pla in</w>
le e</w>
ca stle</w>
plan et</w>
evid ence</w>
de st
beli ev
cu stom
bast ard</w>
ma in
in tel
ta ined</w>
sh ri
su cked</w>
for ty</w>
i al</w>
s ant</w>
hon est</w>
consi dering</w>
v or</w>
ang el
con sci
mat eri
s ac
gu l
m i</w>
ir on</w>
sin k</w>
a st</w>
bru sh</w>
b ound</w>
wr ite</w>
be coming</w>
hear t
restaur ant</w>
p on
eng lish</w>
blo ck</w>
il lu
hor ror</w>
comm and</w>
g ers</w>
fa iled</w>
re spect</w>
in y</w>
memb ers</w>
lo ss</w>
v is</w>
eli za
lea der</w>
sli ding</w>
chri s</w>
b ing</w>
gabri el</w>
inclu ding</w>
glar ed</w>
gh s</w>
who m</w>
pour ed</w>
em s</w>
t ear</w>
j im</w>
eliza beth</w>
respon ded</w>
p age</w>
cab in</w>
an tly</w>
al d</w>
th rowing</w>
pa pers</w>
twel ve</w>
at en</w>
stan ds</w>
hur ry</w>
ton y</w>
ba dly</w>
k ick</w>
maj or</w>
sli p</w>
sw ept</w>
o p</w>
la un
t tering</w>
si e</w>
bla me</w>
am ount</w>
in j
ne t</w>
el l
con st
l ur
wh eel</w>
s ma
dev el
fac ing</w>
par ts</w>
sw ear</w>
at tr
no where</w>
je sus</w>
a mon
elec tri
fir mly</w>
fu ri
st ered</w>
li ghtly</w>
he els</w>
di sc
r ou
bea st</w>
fo ol</w>
c le
li ft</w>
fra me</w>
ssi ons</w>
ro b
be l</w>
spir it</w>
mil lion</w>
char ac
mar ry</w>
g low</w>
hur ried</w>
t est
lo vely</w>
v or
pre si
por ch</w>
gar den</w>
ho ly</w>
lea n</w>
ca ve</w>
enjo yed</w>
ti ps</w>
fi xed</w>
emo tion</w>
h at</w>
rema in</w>
jo sh</w>
ci gar
re g
si on
l ined</w>
resp ond</w>
j or
ar med</w>
i us</w>
tu cked</w>
s che
mar ked</w>
dam ned</w>
ri dic
par ked</w>
pul se</w>
ec u
j ane</w>
m r</w>
ir rit
ge st</w>
under standing</w>
an der</w>
z es</w>
m eal</w>
ac cor
mat ch</w>
z o
so lid</w>
fe ar
p ace</w>
f loo
fe atures</w>
bir d</w>
ri c</w>
bi gger</w>
p a</w>
r on</w>
z ation</w>
milit ary</w>
hi gher</w>
m un
ma ssive</w>
stron ger</w>
il l
plan ning</w>
sli ght</w>
chal len
relea se</w>
f lat
no ah</w>
b acked</w>
gir l
h a</w>
insi sted</w>
m m</w>
strugg led</w>
b ble</w>
ff led</w>
wh en
sn ea
be tra
pp y</w>
m my</w>
eng ine</w>
t ing
pul ls</w>
z ane</w>
tra vel</w>
sp ell</w>
thru st</w>
fren ch</w>
s ean</w>
ic s</w>
fr ank</w>
govern ment</w>
el ing</w>
tab les</w>
boy friend</w>
cra p</w>
sig ns</w>
win ter</w>
up stairs</w>
thre at</w>
ste ve</w>
americ an</w>
bl ur
or ted</w>
li qu
du c
mb s</w>
er e
ous es</w>
oli via</w>
blank et</w>
acci dent</w>
pla stic</w>
bil ly</w>
v ac
ear ance</w>
nor m
camer a</w>
z a</w>
when ever</w>
e sc
un comfortable</w>
s nar
off ici
in ha
ev ents</w>
em br
shar p
mer ely</w>
l ace</w>
p et</w>
car ed</w>
f ed</w>
rai se</w>
a my</w>
reas ons</w>
brief ly</w>
ti onal</w>
app ear</w>
gr an
ign ore</w>
co vering</w>
de p
libr ary</w>
sm elled</w>
anti cip
fas hi
eyebro w</w>
ne ath</w>
ag ent</w>
fla mes</w>
ga in</w>
sp ring</w>
thi ghs</w>
gri pped</w>
a de</w>
star ts</w>
coun cil</w>
cho ose</w>
con nor</w>
b om
plea sant</w>
grate ful</w>
cap able</w>
inten se</w>
p uni
vic tor
as se
int ment</w>
en ter</w>
rela x</w>
effec t</w>
ous ness</w>
reli eved</w>
da ddy</w>
gra du
start led</w>
s no
ridic ul
jo y</w>
bl ond</w>
w oul
ti vely</w>
ble w</w>
man ag
co tt
cre ated</w>
th ri
pur se</w>
confu sion</w>
ni fic
m id</w>
mi a</w>
fir ed</w>
exp en
convin ced</w>
ge ous</w>
wh el
t ang
heavi ly</w>
profe ss
id enti
ki sses</w>
pi le</w>
st yle</w>
e qui
sa ge</w>
ac tions</w>
gen tle
dist ur
sli de</w>
bal ls</w>
re luc
under neath</w>
d ag
week end</w>
danc ing</w>
au di
p ure</w>
k al
g w
se ven
e ss
for got</w>
in ches</w>
thro wn</w>
k i</w>
some body</w>
ten sion</w>
shi eld</w>
ru les</w>
org ani
w re
se qu
survi ve</w>
ha n</w>
f ab
in du
or ange</w>
hand some</w>
guil t</w>
se ction</w>
hal f
woul d
pas sen
anim als</w>
f an</w>
y ne</w>
norm ally</w>
ri pped</w>
cel e
je al
lo gy</w>
wea k
jo se
x ing</w>
dist ant</w>
fer red</w>
sh y</w>
i vy</w>
conne ction</w>
sto pping</w>
bir th
inno cent</w>
assu med</w>
con ten
bla ke</w>
radi o</w>
recei ved</w>
cha irs</w>
clou ds</w>
war ned</w>
susp ic
re sting</w>
pi ssed</w>
ho pe
str anger</w>
tel ls</w>
m ely</w>
wo w</w>
de b
mon ster</w>
mi ser
sh ment</w>
di a</w>
f ying</w>
wid ened</w>
acti ve</w>
horri ble</w>
en ces</w>
re l</w>
accep ted</w>
x i</w>
bag s</w>
sp lit</w>
de l</w>
pic king</w>
ep tion</w>
ur ge</w>
ri s</w>
con su
ba stian</w>
mean ing</w>
commun ic
fer ence</w>
li fe
it ting</w>
un fortunately</w>
ru bbing</w>
cl oud</w>
langu age</w>
k ir
hon or</w>
conne cted</w>
var ious</w>
tun nel</w>
strea m</w>
qu a
h ouses</w>
ca ssie</w>
r i</w>
cele br
du ty</w>
au thor
dd led</w>
mp le</w>
practi ce</w>
lit er
er t</w>
te dly</w>
fi er
w ling</w>
fi x</w>
y n
practi cally</w>
on a</w>
ro ws</w>
ca sh</w>
li ght
mor tal</w>
u pper</w>
ca m
over whel
pl at
lou dly</w>
g as
b r</w>
tre ated</w>
ri d</w>
curren t</w>
appreci ate</w>
exa min
car ol
sw ir
buil dings</w>
re ver
tau ght</w>
g an
al right</w>
chang ing</w>
ju dge</w>
re scu
oc ean</w>
k at
tre at</w>
dro pping</w>
bl on
ni ghts</w>
than k
clo thing</w>
cre atures</w>
ing ton</w>
sa ke</w>
pow ers</w>
simil ar</w>
wa shed</w>
na ils</w>
h int</w>
p ounding</w>
inten ded</w>
pregn ant</w>
ter y</w>
n al</w>
stu mbled</w>
stru c
incre as
i z
oc cur
lon don</w>
ac es</w>
da mage</w>
ghten ing</w>
wol ves</w>
belie f</w>
ro cks</w>
pro gra
har ry</w>
fli pped</w>
pu zz
sear ched</w>
vi br
sh ly</w>
bree ze</w>
hu gged</w>
ro bert</w>
tre ss</w>
ur y</w>
plu s</w>
l ers</w>
presi dent</w>
j ared</w>
ab by</w>
fu l
f at</w>
s ank</w>
p it</w>
bu i
b ond</w>
luc as</w>
cry st
wit ched</w>
aw ful</w>
st ir
bui ld</w>
no tes</w>
grand mother</w>
smal ler</w>
sk y
soldi er</w>
mu m</w>
cr ack</w>
da wn</w>
be ha
lun gs</w>
cho se</w>
bal ance</w>
kil ler</w>
no ds</w>
nur se</w>
chri stian</w>
gr ant</w>
corri dor</w>
wal ks</w>
honest ly</w>
spo tted</w>
ann ounced</w>
sil k</w>
temp le</w>
avo i
har d
fro ze</w>
ac le</w>
jo ke</w>
m s.</w>
i zed</w>
gho st</w>
clo set</w>
con fe
sat ur
da r</w>
wea ther</w>
fro zen</w>
girl friend</w>
k ev
stu dents</w>
glan cing</w>
pat ter
gun s</w>
would 've</w>
exi st
lun g</w>
la dies</w>
pe ered</w>
sex u
st led</w>
cha mber</w>
to wer</w>
fi sts</w>
2 0
pri son</w>
tre mbling</w>
sta ir
ci vi
d it
circu m
recogni ze</w>
ig n</w>
e ty</w>
lan ds</w>
prin cess</w>
tri es</w>
profess or</w>
w ro
gri m
photo gra
poin ts</w>
as m</w>
ti al</w>
cha in</w>
se bastian</w>
com par
be gun</w>
gen cy</w>
desper ately</w>
tex t</w>
su spected</w>
fe ed</w>
stat ement</w>
enjo ying</w>
sa u
juli an</w>
har m</w>
moun tains</w>
gra bbing</w>
destro y</w>
cho sen</w>
frustr ation</w>
con clu
da y
mar cus</w>
ad d</w>
sti ff
re turning</w>
cau sing</w>
clo th</w>
gr and</w>
pla y
guil ty</w>
c les</w>
every body</w>
esca ped</w>
lar ger</w>
fil ling</w>
sp ine</w>
ab rup
pri de</w>
down stairs</w>
fa ith</w>
je ff</w>
for give</w>
ex plan
jour ney</w>
f ate</w>
be ating</w>
char les</w>
d less</w>
sm el
cli mb</w>
b or</w>
ri an</w>
po st</w>
it or</w>
numb ers</w>
regre t</w>
cr acked</w>
in iti
man age</w>
rea r</w>
con fir
inst inc
tow el</w>
particu larly</w>
li fting</w>
ck en</w>
thr ough
ro a
s ane</w>
an drew</w>
wa ste</w>
al arm</w>
i ve</w>
ste pping</w>
abrup tly</w>
par ted</w>
ben ch</w>
sen sation</w>
inv it
u nex
p lo
part ner</w>
de scen
de ca
lan ding</w>
p ack
whi r
f lin
ignor ing</w>
skir t</w>
crea m</w>
bun ch</w>
st ab
as sist
en cou
con c
sm ith</w>
correc t</w>
t less</w>
com ment</w>
mar i
as sured</w>
stun ned</w>
ridicul ous</w>
a mb
man i
b roo
who ever</w>
el bow</w>
ba y</w>
idi ot</w>
a va
sar a</w>
mi s
til ted</w>
ga zed</w>
dem ons</w>
ten der</w>
en vel
gu s</w>
ff s</w>
imp ati
gest ure</w>
in ner</w>
t ask</w>
sco tt</w>
intel lig
gre g
ri ding</w>
ch er
do gs</w>
a th
ther ine</w>
cu te</w>
s nu
st ones</w>
p acked</w>
through out</w>
op in
cr ou
hea ven</w>
tu gged</w>
c ee
t ore</w>
exhau sted</w>
pro gre
gar age</w>
bo b</w>
tt a</w>
ni a</w>
frien dly</w>
g le</w>
sof a</w>
eri e</w>
cla im</w>
ck les</w>
chec king</w>
cal e
bri lli
ro g
warri or</w>
wro te</w>
sche du
a x
cau ti
dol lars</w>
ma ke
stan ces</w>
shoo ting</w>
po pped</w>
gor geous</w>
awk ward</w>
preten d</w>
sil ly</w>
dri fted</w>
r hy
k er
l er
d at
pur ple</w>
hi ssed</w>
grand father</w>
a c</w>
experien ced</w>
com pe
blon de</w>
m .</w>
w on</w>
birth day</w>
fur y</w>
ex pl
sc at
du g</w>
c ting</w>
ru le</w>
r aced</w>
cho col
hun dre
att acked</w>
s se</w>
bo wl</w>
ser ies</w>
pain ful</w>
com pla
sh eri
ang s</w>
en ter
ch o</w>
l as</w>
k o</w>
s nat
appro ach</w>
tra f
tra pped</w>
app earance</w>
ad dress</w>
rema ining</w>
back ward</w>
terri fied</w>
traf fic</w>
mo ves</w>
col ored</w>
en ds</w>
pro per</w>
c em
sen ten
sk u
om ed</w>
pri ce</w>
g il
to es</w>
mat ters</w>
si p</w>
sp la
gu t</w>
u gly</w>
el ds</w>
tel evi
wh er
to tal</w>
ma sk</w>
lo s</w>
embarra ssed</w>
g age</w>
pal ms</w>
sour ce</w>
she et</w>
pil low</w>
al y
ex it</w>
au tom
si zed</w>
o ls</w>
o be
vehi cle</w>
sen sed</w>
e x</w>
p en</w>
po t</w>
vi de
tar get</w>
secre ts</w>
re v
pa ying</w>
t ary</w>
me at</w>
advan tage</w>
far ther</w>
br a</w>
detec tive</w>
o le</w>
ne ed
re tri
su it
ie ty</w>
g lea
vo lu
sophi e</w>
al co
half way</w>
co ck</w>
in ct</w>
ea ger</w>
pain ted</w>
se ated</w>
acc ess</w>
sp ing</w>
satis fied</w>
rec ently</w>
bo wed</w>
dea n</w>
destro yed</w>
hi p</w>
fri ghtened</w>
bro ad</w>
fal ls</w>
ro man
sku ll</w>
wa sh</w>
so oner</w>
ther e
echo ed</w>
ma p</w>
tri stan</w>
le tters</w>
musc le</w>
ren ce</w>
op e</w>
gli mp
g lowing</w>
z ar
ro de</w>
m n</w>
j o</w>
haw k</w>
cal i
some what</w>
ck led</w>
co st</w>
strai ghtened</w>
pre vious</w>
ga mes</w>
memb er</w>
n it
possi bility</w>
en or
na than</w>
m eli
f oun
k ing
respon sible</w>
surr ounding</w>
gue ssed</w>
tor n</w>
protec tion</w>
cl an</w>
suc cess
cu tting</w>
mar ks</w>
convin ce</w>
cale b</w>
li kes</w>
d ining</w>
bo tt
fro wn</w>
ex claimed</w>
de pen
fli ck
te acher</w>
tra ined</w>
ed die</w>
accor ding</w>
sist ers</w>
gg y</w>
bel la</w>
as y</w>
de fe
victor ia</w>
leg al</w>
foot steps</w>
men ted</w>
cre d
regu lar</w>
discu ss</w>
ver sion</w>
w ere
o b</w>
ster n</w>
k ic
co p</w>
soun ding</w>
spar k
man ner</w>
ho li
log ical</w>
televi sion</w>
ki d
gre at
cat ching</w>
s mu
c ous
hol ds</w>
p le
cur se</w>
mu mbled</w>
te e</w>
un like</w>
cous in</w>
for cing</w>
pri son
fav or</w>
yan ked</w>
o sity</w>
sa v
kel ly</w>
vo lun
ta pped</w>
our selves</w>
stru ction</w>
stri ke</w>
occur red</w>
and ra</w>
beha vi
a de
thi gh</w>
la y
loc ation</w>
de gre
lu cy</w>
di smi
vi o
il ls</w>
a man
lan d
t ough</w>
ga z
ther n</w>
imag es</w>
chri st</w>
bir th</w>
di an</w>
ter ror</w>
d anny</w>
sym pa
ca ge</w>
clear ing</w>
ordin ary</w>
challen ge</w>
bl ank</w>
pro ject</w>
st ated</w>
or n</w>
sp ra
pp le</w>
lo e</w>
co m</w>
sun light</w>
tra l</w>
deser ve</w>
bb led</w>
z z</w>
unex p
ev ent</w>
m are</w>
cigar ette</w>
lo ad</w>
re placed</w>
bor ed</w>
x i
ough ly</w>
h ec
con tr
sha de</w>
clo sely</w>
na u
ho me
dri ve
di ly</w>
gr inning</w>
sla pped</w>
b and
quar ters</w>
dy lan</w>
ph y</w>
y ards</w>
sel ess</w>
rai sing</w>
w ic
exist ence</w>
gest ured</w>
tr ace</w>
po ten
bri an</w>
sha me</w>
f led</w>
mor gan</w>
han nah</w>
vani shed</w>
snor ted</w>
john ny</w>
hun t</w>
le ans</w>
dr ank</w>
hundre ds</w>
gl are</w>
sen ses</w>
confi dence</w>
att ached</w>
explan ation</w>
uni verse</w>
i sh</w>
ad mir
pi dly</w>
chocol ate</w>
pi sto
recor d</w>
ri ley</w>
cri me</w>
jer emy</w>
dra ke</w>
origin al</w>
ser ge
re search</w>
de cor
profe ssi
b y
medic al</w>
pi ed</w>
pal ace</w>
b its</w>
cryst al</w>
st and
i sed</w>
and a</w>
loa ded</w>
brea d</w>
drive way</w>
ju lie</w>
bir ds</w>
dev il</w>
de clar
th less</w>
inv ited</w>
strugg ling</w>
smo oth
st ag
issu e</w>
f ence</w>
sha kes</w>
form er</w>
li cked</w>
brea st</w>
al ice</w>
gh ty</w>
proper ty</w>
su san</w>
hi tting</w>
gh ten</w>
fel low</w>
agre ement</w>
rememb ering</w>
jac ob</w>
v ent</w>
tra y</w>
the tic</w>
se ttle</w>
th or</w>
re mo
tru sted</w>
bl an
e tern
satur day</w>
mi st</w>
fro w
i ses</w>
liqu id</w>
lou der</w>
s sm
ar m
s ons</w>
bo thered</w>
d i</w>
d der</w>
t an</w>
ex ha
go wn</w>
lo ving</w>
ear l</w>
s lowed</w>
dam p</w>
cur sed</w>
ava il
assu me</w>
bul let</w>
ch loe</w>
mag gie</w>
stro ked</w>
ri e</w>
soci al</w>
o' clock</w>
s car</w>
or ing</w>
happ iness</w>
ar ched</w>
hun ting</w>
ca ke</w>
exten ded</w>
plac ing</w>
bo ws</w>
no dding</w>
e g
kee ps</w>
pre dic
ar gue</w>
sp or
cen tu
p y
f ea
co ps</w>
te ach</w>
b att
any body</w>
ac cu
re al
sc ru
z ens</w>
sharp ly</w>
b led</w>
su e</w>
gen u
kev in</w>
ten se</w>
pat ted</w>
comp lic
cra ft</w>
thou ght
extre mely</w>
light ning</w>
er al</w>
drin ks</w>
dea s</w>
squ ir
in sul
ex ecu
p ment</w>
tan tly</w>
y a
dr a</w>
tel ep
a than</w>
da l</w>
con ce
bl ind</w>
no ted</w>
shee ts</w>
ck le</w>
thous ands</w>
st ling</w>
j ected</w>
chi ll</w>
sh ine</w>
di sh</w>
ea s</w>
avail able</w>
pro of</w>
confi dent</w>
bu t
z om
jen ny</w>
su spect</w>
win d
da ve</w>
th us</w>
mo on
pas sion</w>
m ere</w>
de partment</w>
ob ject</w>
c ca</w>
bri ck</w>
dru g</w>
r acing</w>
requ ired</w>
st ates</w>
aband oned</w>
hel en</w>
po p</w>
materi al</w>
lo tte</w>
br and
fac tion</w>
gu ests</w>
jec ts</w>
eli a</w>
sun day</w>
co vers</w>
pun ch</w>
jack son</w>
l led</w>
w y
sp er
gg led</w>
appro aching</w>
wra p</w>
hor iz
vir g
ac count</w>
clu e</w>
ff in</w>
fri day</w>
sexu al</w>
soci ety</w>
b our
go o
pro mp
ar i</w>
po ckets</w>
for ming</w>
aman da</w>
n on</w>
f arm</w>
el li
for ms</w>
af ford</w>
expen sive</w>
stu dying</w>
bu tt</w>
sw ing</w>
pa int</w>
sh ane</w>
a mber</w>
sci enti
ro ger</w>
dra g</w>
cla y</w>
co ok</w>
ri s
sha l
jon athan</w>
free dom</w>
gg s</w>
spec t
b o</w>
ma ss</w>
i son</w>
disappo inted</w>
ri er</w>
par a
j on</w>
adv ice</w>
passen ger</w>
car ds</w>
stro de</w>
ex posed</w>
enor mous</w>
el t</w>
ang le</w>
tem per
sheri ff</w>
gra sp</w>
t ness</w>
whisp ers</w>
se es</w>
ing ed</w>
ff y</w>
ru ssi
rif le</w>
threat ened</w>
wr ink
o tic</w>
sho ts</w>
emer ged</w>
nerv ously</w>
circum stances</w>
d ating</w>
in sane</w>
curi osity</w>
ten ed</w>
co de</w>
la b</w>
b es</w>
h en</w>
so o
en e</w>
bloo d
st ion</w>
deser t</w>
tre as
pati ent</w>
b i</w>
e some</w>
s ell</w>
deli ber
hal t</w>
ra w</w>
off ering</w>
be cca</w>
mi le</w>
mo aned</w>
pa d</w>
sen sit
ed ith</w>
lat ely</w>
re ss</w>
tri ck</w>
fla me</w>
ev an</w>
ki dding</w>
sle y</w>
encou ra
back ground</w>
ob li
brilli ant</w>
disp lay</w>
z ard</w>
j im
opin ion</w>
el even</w>
ca p</w>
bro ws</w>
fe ared</w>
ro be</w>
char lotte</w>
mo der
respon si
cre te</w>
re mind</w>
ar ely</w>
lo ves</w>
ha ired</w>
mat the
r in
sho wn</w>
amu sed</w>
run s</w>
bar s</w>
comman der</w>
pat rick</w>
cre ep
pl un
fa ke</w>
t i</w>
i deas</w>
con ven
vide o</w>
ma c</w>
w ear
hope fully</w>
v et</w>
meli ssa</w>
squee ze</w>
in formed</w>
vio let</w>
r ings</w>
reve aled</w>
cre ate</w>
st ops</w>
c lau
sp ending</w>
al lowing</w>
ma gaz
we al
la ura</w>
k ati
. m.</w>
jor dan</w>
n ational</w>
bul l
ble eding</w>
direc t</w>
bo xes</w>
dro ps</w>
sho pping</w>
ner ves</w>
im pressed</w>
gas p</w>
app o
emp loy
collap sed</w>
ti s</w>
gri ef</w>
mar tin</w>
gra ve</w>
en cy</w>
pho to</w>
m mer
over head</w>
sand wic
pain ting</w>
sh ore</w>
new spa
vi du
ag ged</w>
bi ke</w>
ga thering</w>
mark et</w>
char ged</w>
indi vidu
de al
sc al
in visible</w>
pro ved</w>
ly n</w>
fab ric</w>
ee p</w>
comp an
ma d
answ ering</w>
tra iled</w>
mid night</w>
preci ous</w>
ad ju
el lie</w>
rhy th
resul t</w>
sol ve</w>
lin k</w>
con crete</w>
ar chi
re tt</w>
bor ing</w>
je wel
bel le</w>
sh ining</w>
vers ity</w>
al le
ic y</w>
ben ef
har sh</w>
el a
qu it</w>
je ssi
or i
law yer</w>
a is
uni form</w>
belon ged</w>
d le</w>
j ace</w>
delic ate</w>
deta il</w>
deser ved</w>
bre n
val ley</w>
in tri
h o</w>
cou gh
roy al</w>
trac ks</w>
vul ner
stra ined</w>
reali zing</w>
laugh s</w>
sp are</w>
pro ce
chang es</w>
scan ned</w>
sp ort</w>
ru shing</w>
ve ins</w>
wit ne
sli pping</w>
ti cally</w>
ca ses</w>
cli ff</w>
explo ded</w>
fa mous</w>
appro pri
tre nt</w>
al ley</w>
ex act</w>
est ed</w>
sna p</w>
provi ded</w>
sp inning</w>
wor l
jessi ca</w>
al li
y den</w>
e aten</w>
care er</w>
gu est</w>
col in</w>
on able</w>
d row
cra wled</w>
shou ting</w>
moti oned</w>
-- --
g en</w>
pa y
je sse</w>
p ages</w>
ter ms</w>
sing ing</w>
kati e</w>
p tion</w>
reli gi
ti ll</w>
lo ver</w>
le c
thu si
sta ined</w>
sing ly</w>
gh ted</w>
mi c</w>
air port</w>
mi xed</w>
der ek</w>
assa ss
a ye</w>
k yle</w>
ma ma</w>
en ess</w>
i sy</w>
sar ca
c ore</w>
vic tor</w>
p ea
wa ving</w>
dru gs</w>
rol ls</w>
ad ven
sp here</w>
good bye</w>
ro me</w>
trac ted</w>
ex ist</w>
col lar</w>
me l</w>
ex er
k at</w>
s day</w>
ch y</w>
co py</w>
ace ful</w>
il ities</w>
fair ly</w>
shud dered</w>
li an</w>
tr unk</w>
fan ta
ro bo
wor k
ow ner</w>
en thusi
si ck
rema ins</w>
consi der
con dition</w>
cra sh</w>
r ange</w>
bran ches</w>
pisto l</w>
distr acted</w>
di amon
ac tual</w>
wa sh
equi pment</w>
la d</w>
stu dent</w>
se ats</w>
i st
chi cken</w>
shi vered</w>
li z</w>
par is</w>
ac hi
fli cked</w>
screa ms</w>
ba si
cha mp
resi st</w>
finger tips</w>
ick y</w>
col ors</w>
i x</w>
d ick</w>
arrang ed</w>
peri od</w>
mu d</w>
hun ger</w>
ann oun
kn elt</w>
di m</w>
tal s</w>
exc ell
clo se
serge ant</w>
al ty</w>
embr ace</w>
1 0</w>
r are</w>
stu bb
ra pidly</w>
o t
frien d
n ine
vil le</w>
sha ped</w>
shru g</w>
ar ing</w>
nit ure</w>
fur niture</w>
her o</w>
gr at
gu es</w>
y ly</w>
ga vin</w>
sig nific
flu shed</w>
he ight</w>
col on
lu st</w>
cred it</w>
ca b</w>
swal low</w>
c ement</w>
pan ties</w>
r o</w>
behavi or</w>
pe te</w>
jose ph</w>
disapp ear</w>
shor ts</w>
t ant</w>
happ ily</w>
pi lot</w>
cou rage</w>
arri ve</w>
requ est</w>
ki m</w>
ed ward</w>
famili es</w>
so ld</w>
cr ack
mil k</w>
spee ch</w>
cor p
r out
f lowing</w>
bas ed</w>
incredi ble</w>
defen se</w>
uni versity</w>
offic ers</w>
matthe w</w>
an nie</w>
r al
ky lie</w>
scat tered</w>
de c
mar a</w>
at ors</w>
senten ce</w>
swe at
jeal ous</w>
' em</w>
tea sing</w>
cho ked</w>
w ounds</w>
sit s</w>
d g
be ard</w>
pro test</w>
di gging</w>
emer gency</w>
secur e</w>
rev eal</w>
na sty</w>
ne ck
lat ing</w>
tra p</w>
jen ni
gree ted</w>
kno cking</w>
g lit
cor ners</w>
dri ven</w>
jenni fer</w>
un usual</w>
k nu
bi le</w>
du ke</w>
dar ling</w>
cal mly</w>
anno yed</w>
se l</w>
t ate</w>
ta r</w>
d d</w>
warri ors</w>
dis belief</w>
const ant</w>
dra gging</w>
mar ie</w>
on g
z er</w>
m atic</w>
stu ffed</w>
amu sement</w>
tal e</w>
ga ther</w>
shi f
st y
ff ing</w>
cre pt</w>
g lor
den y</w>
chil d
argu ment</w>
der ly</w>
hou se
it a</w>
re move</w>
furi ous</w>
o il</w>
anx ious</w>
sym bo
g ear</w>
lear ning</w>
pun ched</w>
h in
excell ent</w>
ali en</w>
fr ank
a do
b ac
a y</w>
beg ins</w>
y lor</w>
wri sts</w>
mm ered</w>
reve aling</w>
g a</w>
hi d</w>
pri est</w>
jer k</w>
o es</w>
natur ally</w>
ar ily</w>
r att
brea ths</w>
pl ant</w>
night mare</w>
delic ious</w>
cla ws</w>
ru pt</w>
satis faction</w>
four th</w>
direc tions</w>
k night</w>
americ a</w>
diti onal</w>
rec all</w>
occu pied</w>
il a</w>
survi ved</w>
sti ff</w>
cer em
do cu
cri min
con tra
centu ries</w>
d led</w>
hur ting</w>
professi onal</w>
st atu
co ach</w>
min ds</w>
sk ills</w>
ke ts</w>
bar n</w>
sho w
gge st</w>
de aling</w>
tea sed</w>
co lu
st ry</w>
p ity</w>
mer edith</w>
bi ggest</w>
de on</w>
ar ia</w>
shor tly</w>
dre ssing</w>
side walk</w>
re st
casu al</w>
gro an</w>
fla sh
sy l
v ement</w>
ro b</w>
b acks</w>
dra g
han k</w>
sha ttered</w>
op tion</w>
re d
sc ul
ne g
car pet</w>
gab e</w>
cha sed</w>
b last</w>
ter m</w>
lu x
progre ss</w>
bit ing</w>
ta sted</w>
up ward</w>
rescu e</w>
ex change</w>
ro le</w>
ac u
c anc
or ity</w>
impre ssion</w>
for t</w>
p ick
ale c</w>
p ha
circ les</w>
jim my</w>
or a</w>
fo g</w>
b al</w>
crow ded</w>
b ath</w>
climb ing</w>
wi shing</w>
w ounded</w>
eigh teen</w>
dan te</w>
f lar
du de</w>
apologi ze</w>
k ha
separ ate</w>
r ate</w>
du ll</w>
as soci
ul ti
swi f
li a</w>
a ver
sh er
f low</w>
fre qu
un known</w>
ta pe</w>
emo tional</w>
f angs</w>
for ces</w>
provi de</w>
win ked</w>
vel ed</w>
just ice</w>
v ey</w>
do c</w>
st .</w>
ta ining</w>
dri ed</w>
b ou
i er</w>
fli r
mom en
fu r</w>
su ck</w>
se ful</w>
bel ong</w>
conten ts</w>
flo ating</w>
re se
g ates</w>
dag ger</w>
m per
ci a</w>
ri bs</w>
cro ssing</w>
sensit ive</w>
gr unted</w>
k ane</w>
ad vi
n is</w>
est ab
sh out</w>
lo bby</w>
ty ler</w>
en ted</w>
ed ges</w>
t ank</w>
pu s</w>
whi pped</w>
strugg le</w>
in ny</w>
dan ced</w>
there fore</w>
da mi
ver n</w>
clut ched</w>
ro ared</w>
near est</w>
sugge st</w>
in flu
foot ball</w>
temp or
wan dered</w>
li ar</w>
con sequ
ga ined</w>
ti pped</w>
in va
as si
de mon
si onal</w>
suc cess</w>
tar ily</w>
fol ks</w>
l i</w>
emi es</w>
b ang
re act</w>
sto len</w>
y ep</w>
en emies</w>
ren t</w>
ha ir
make up</w>
ri dge</w>
i .</w>
pu ts</w>
li ons</w>
audi ence</w>
mic ro
fi elds</w>
ev es</w>
ro ar</w>
wra pping</w>
tra de</w>
shi fting</w>
in fec
illu min
cen tur
bra ve</w>
s ch
up right</w>
ti ghter</w>
stret ch</w>
o wned</w>
ser ving</w>
z er
c ts</w>
qu inn</w>
co w
gre ater</w>
man u
vi er</w>
bru shing</w>
rec ent</w>
dra wer</w>
liter ally</w>
commun ity</w>
comp li
attr active</w>
e th
heal thy</w>
conven i
sna ke</w>
kic king</w>
st ance</w>
ju mping</w>
sp y</w>
stri p</w>
val u
scre e
acc ent</w>
stea l</w>
centur y</w>
anticip ation</w>
brea sts</w>
tre vor</w>
kid na
ch ea
exp an
bit ter</w>
inj ured</w>
ar s</w>
per man
mp led</w>
r arely</w>
s witch</w>
in spec
mov ements</w>
bu ddy</w>
p ir
d ated</w>
c leaning</w>
assist ant</w>
st a</w>
cab in
horiz on</w>
mon day</w>
fier ce</w>
co cked</w>
ra l</w>
six teen</w>
n y
threat ening</w>
win ced</w>
f ancy</w>
glan ces</w>
sho ws</w>
op ens</w>
m o</w>
hu mor</w>
acti v
loc ated</w>
cra shed</w>
ho l</w>
cu pped</w>
de e</w>
wa ter
fi gu
myster y</w>
f lower</w>
th a
lan e</w>
re pu
po st
li shed</w>
bol t</w>
re aches</w>
exper im
ca mp
prot ected</w>
on ic</w>
cee ded</w>
vic tim</w>
vel s</w>
fin n</w>
war dly</w>
close st</w>
bra d</w>
ab sor
g ent</w>
unexp ected</w>
ac knowle
positi ve</w>
j et</w>
sign al</w>
le i
ho ok</w>
shi ver</w>
swee the
clo ak</w>
casu ally</w>
yel ling</w>
ssm ent</w>
cor por
po pul
poten tial</w>
t our</w>
sur ance</w>
al ert</w>
du cked</w>
charac ter</w>
ar a</w>
un ited</w>
hil ls</w>
b in
ad rian</w>
sci ence</w>
it ems</w>
rou te</w>
lea pt</w>
cli cked</w>
sto ck</w>
suspic ious</w>
a id</w>
sc ary</w>
oper ation</w>
alex ander</w>
ho les</w>
complic ated</w>
bo ot</w>
tw in</w>
an n</w>
psy cho
gui de</w>
pat ch</w>
confir med</w>
stro ke</w>
mi ssi
t ag
er in</w>
wa n</w>
c iti
br y
thr one</w>
sol ved</w>
disappo intment</w>
pati ence</w>
la ying</w>
c ed
sa dness</w>
appropri ate</w>
glimp se</w>
cont ent</w>
su m
fr ed</w>
lon ely</w>
consci ousness</w>
re ven
exi sted</w>
ba sement</w>
de ss</w>
str ing</w>
mar ch</w>
end less</w>
fashi on</w>
gigg led</w>
ele g
reluc tantly</w>
neigh bor
el ena</w>
ar ou
va st</w>
er up
dea dly</w>
th ful</w>
tech n
per mission</w>
frustr ated</w>
ru in</w>
ma '
progra m</w>
supp lies</w>
side ways</w>
su gar</w>
movi es</w>
ne st</w>
no pe</w>
envel ope</w>
ber ry</w>
sa ving</w>
cr it
e cho</w>
t ney</w>
sweethe art</w>
ali e</w>
d ney</w>
v it
polit e</w>
sa f
moder n</w>
dun can</w>
imag ination</w>
ja il</w>
ac coun
swif tly</w>
ru ined</w>
co ck
e se</w>
pre fer</w>
blo cks</w>
sur ing</w>
grow l</w>
ar mor</w>
l on</w>
sle eve</w>
back pack</w>
shar ing</w>
viol ent</w>
g lin
id an</w>
tu b</w>
hand ful</w>
le st</w>
to e</w>
zz a</w>
si vely</w>
op er</w>
ma son</w>
circ led</w>
mat es</w>
h mm</w>
gar rett</w>
stag g
ja y</w>
al oud</w>
attemp ted</w>
d ant</w>
f lor
b ic
be gged</w>
li mbs</w>
sett ling</w>
li c</w>
bri de</w>
back wards</w>
proper ly</w>
ho lly</w>
dev ice</w>
cha os</w>
to i
mo an</w>
mit ch</w>
a wa
b lowing</w>
sh ell</w>
mer cy</w>
gri m</w>
disgu st</w>
di stri
ast oni
patter n</w>
ea ble</w>
sto le</w>
th ick
hea l</w>
per c
mer ci
o m</w>
un conscious</w>
a idan</w>
ch ances</w>
sw inging</w>
hi red</w>
att itude</w>
du l
con stantly</w>
fla shing</w>
enti al</w>
s in</w>
pic al</w>
cont em
alco hol</w>
arri val</w>
li sa</w>
do ck</w>
cl in
u seless</w>
ing e</w>
sh iny</w>
ma' am</w>
di vor
no te
con diti
offici al</w>
sw ore</w>
d war
ri p</w>
heal th</w>
car t</w>
wor thy</w>
o we</w>
cen tral</w>
preten ding</w>
me ter</w>
boo k
re ck
cur ve</w>
be g</w>
gw en</w>
fas cin
ev a</w>
bro ad
doub ted</w>
ag ony</w>
dis cover</w>
figu res</w>
de cent</w>
vulner able</w>
ama z
est ate</w>
the ory</w>
it ing</w>
bo bby</w>
gh ters</w>
po sing</w>
high way</w>
tri bu
responsi bility</w>
mul ti
w eigh
m in</w>
twi sting</w>
tab ly</w>
si a</w>
an dy</w>
ter rit
cap tured</w>
scra mbled</w>
car riage</w>
im ing</w>
mmer ing</w>
refle ction</w>
wit ness</w>
mat tered</w>
l ac
comm it
ta ylor</w>
a ar
w icked</w>
co ast</w>
un it</w>
bl ink</w>
sion ally</w>
con tained</w>
ti re</w>
ne u
ti le</w>
it able</w>
whisp ering</w>
e duc
d ging</w>
cru el</w>
hol low</w>
k ri
p are</w>
st en</w>
an ing</w>
kee per</w>
te ss</w>
jud g
int ent</w>
heart beat</w>
presen ted</w>
la mp</w>
fli es</w>
incredi bly</w>
app ears</w>
j ess</w>
struc ture</w>
colle ction</w>
occa sionally</w>
1 2</w>
l oun
coun tered</w>
suff ering</w>
imp act</w>
fru it</w>
lu m</w>
mo lly</w>
serv ant</w>
employ e
roman tic</w>
gi deon</w>
cla sses</w>
squ ea
spir its</w>
bal con
pour ing</w>
c leaned</w>
ran dom</w>
ec tion</w>
saf ely</w>
plan ted</w>
ann on</w>
bab e</w>
z ach</w>
travel ed</w>
k u
photo s</w>
v ine</w>
just in</w>
pre pare</w>
kin ds</w>
ha mmer</w>
ac ts</w>
ar row</w>
declar ed</w>
un sure</w>
dark ened</w>
y e
direc ted</w>
1 1</w>
frow ning</w>
se ts</w>
shri e
van ts</w>
explo sion</w>
mar ia</w>
o x
en cer</w>
d ges</w>
hesit ation</w>
wan na</w>
dar ted</w>
star es</w>
jo l
il er</w>
tri al</w>
friend ship</w>
el ling</w>
bran ch</w>
aw esome</w>
u tter
posse ssed</w>
mel o
s ally</w>
tor ture</w>
per cent</w>
tre at
introdu ced</w>
high ly</w>
success ful</w>
pur po
gh test</w>
crou ched</w>
clut ching</w>
f lung</w>
wher ever</w>
mar ble</w>
he ated</w>
wa king</w>
bi es</w>
sophi a</w>
brand on</w>
' '</w>
person ally</w>
el bows</w>
br and</w>
su cking</w>
ser vants</w>
bi o
al i</w>
in tru
viol ence</w>
p ounded</w>
colon el</w>
mel ted</w>
ir a</w>
stir red</w>
sou ls</w>
an o</w>
quar ter</w>
she er</w>
op ing</w>
kar en</w>
u seful</w>
deli vered</w>
fo ld</w>
foo lish</w>
snat ched</w>
less on</w>
it ali
snar led</w>
au thor</w>
c ely</w>
so le</w>
help less</w>
r at</w>
ma i
direc tor</w>
soa ked</w>
e go</w>
travel ing</w>
mir anda</w>
mal es</w>
ou l</w>
ad or
col t</w>
issu es</w>
slu mped</w>
physi cally</w>
see k</w>
t re</w>
an o
ing er</w>
com pre
scre wed</w>
grand ma</w>
sp illed</w>
child hood</w>
hoo ked</w>
su its</w>
tech no
f lan
mag ical</w>
pl ates</w>
compar ed</w>
inten sity</w>
car ved</w>
pp ers</w>
m ck
fun eral</w>
telep h
ter r
s or</w>
bu tter
discu ssion</w>
fortun e</w>
mat tress</w>
al tern
protec tive</w>
di g</w>
scre w</w>
intellig ence</w>
ma id</w>
st en
w ester
ma u
hea ther</w>
en tering</w>
questi oned</w>
e ggs</w>
re su
men tally</w>
lap top</w>
schedu le</w>
ja x</w>
inten tion</w>
separ ated</w>
est er</w>
chee se</w>
luci en</w>
p ounds</w>
shel f</w>
be gging</w>
eng land</w>
ra p
3 0</w>
temp er</w>
he aling</w>
fac ts</w>
cur ved</w>
tre mbled</w>
ra in
den s</w>
nic ole</w>
ab ilities</w>
t ati
psy chi
gra de</w>
tur ing</w>
a va</w>
fal se</w>
manag er</w>
surpri singly</w>
nee ding</w>
p an</w>
pas sage</w>
sp at</w>
sno w
sh one</w>
ol len</w>
frea king</w>
th under
st ack</w>
pi zza</w>
ne il</w>
da ily</w>
w ire</w>
gy m</w>
puzz led</w>
vin cent</w>
shu a</w>
al an</w>
tri gger</w>
ar rog
inci dent</w>
teen ag
cl ung</w>
cali for
lo cks</w>
solu tion</w>
neighbor hood</w>
instru ctions</w>
cli ent</w>
ri ly</w>
lat est</w>
ri ce</w>
a ire</w>
inst inct</w>
comple x</w>
ow en</w>
stic king</w>
b id</w>
sp reading</w>
re y</w>
dri pping</w>
tom my</w>
li cen
pre ferred</w>
ly n
o ted</w>
blin king</w>
r ounded</w>
in cl
d ation</w>
br on
tan e
moon light</w>
ver ti
u mp
su ite</w>
real m</w>
ex changed</w>
s ought</w>
mur dered</w>
chuck le</w>
car ing</w>
rhyth m</w>
maj est
itu al</w>
jo ining</w>
coo king</w>
in ev
la wn</w>
tre n
m ex
wil dly</w>
al ine</w>
suff er</w>
tar a</w>
aar on</w>
cli ck</w>
p ou
visit ed</w>
n ings</w>
prepar ing</w>
in qu
shel ter</w>
mex ic
neigh b
sur ren
cur ls</w>
cont rolled</w>
blo cked</w>
han na</w>
degre e</w>
refu se</w>
hel ic
bull shit</w>
mu g</w>
myster ious</w>
p inned</w>
newspa per</w>
cru shed</w>
blo wn</w>
wi pe</w>
car ter</w>
s her</w>
o dd
br ings</w>
fa in
sal t</w>
r inging</w>
to dd</w>
b an</w>
le xi</w>
ha bit</w>
dem and</w>
volun te
s witched</w>
ten ant</w>
immedi ate</w>
sw ollen</w>
ob served</w>
suff ered</w>
knu ckles</w>
frea k</w>
ten sed</w>
sp encer</w>
k et</w>
great est</w>
a bu
holi day</w>
mon d</w>
du mb</w>
su per</w>
stro king</w>
grim aced</w>
wit ches</w>
p at</w>
stair case</w>
califor nia</w>
sto ol</w>
m bl
exer ci
b a</w>
k ins</w>
exa mple</w>
s words</w>
utter ly</w>
war n</w>
cour ty
lo gi
in ts</w>
ra ven</w>
acti vity</w>
balcon y</w>
st able</w>
f lowed</w>
inclu ded</w>
g ary</w>
bo ar
y ell</w>
d in</w>
ho pes</w>
bott les</w>
tra sh</w>
pp led</w>
wil l
ank le</w>
smir k</w>
n ly</w>
org asm</w>
s l
ner ve</w>
ru de</w>
cri es</w>
susp ici
in da</w>
sor ts</w>
sco wled</w>
can dy</w>
mur der
continu es</w>
co inci
helic op
ha ven</w>
t ched</w>
t earing</w>
rol and</w>
d ale</w>
sea son</w>
cott on</w>
repe at</w>
jo shua</w>
n ation</w>
h h
di pped</w>
anx iety</w>
tw ins</w>
sp ite</w>
isa ac</w>
gentle man</w>
drea med</w>
wat ers</w>
cro wn</w>
concentr ate</w>
contr act</w>
ri g
je ssie</w>
ph ra
ob se
li eu
sa dly</w>
pi e</w>
tion ally</w>
yo r</w>
de sign</w>
tw ist</w>
remo te</w>
boo th</w>
dra ined</w>
sk i</w>
fore ign</w>
sp s</w>
glo ves</w>
ge on</w>
an dre
nic hol
dam on</w>
reven ge</w>
d il
bb ling</w>
produ ced</w>
off en
strang ely</w>
wa gon</w>
om ing</w>
def end</w>
thir teen</w>
i ri
p in</w>
em on</w>
s ore</w>
our ed</w>
mi x</w>
investig ation</w>
la dder</w>
stiff ened</w>
sp it</w>
cla ssi
de signed</w>
le o</w>
inter view</w>
mp er</w>
gri pping</w>
da isy</w>
z ie</w>
carol ine</w>
butt ons</w>
fi a</w>
cauti ously</w>
god dess</w>
rel ated</w>
pre su
sla ve</w>
avoi ding</w>
mm m</w>
br it
plan ts</w>
bo ards</w>
ni pple</w>
mani pul
p he
author ity</w>
swi mming</w>
i o</w>
gu it
smir ked</w>
li ghting</w>
bab ies</w>
equ ally</w>
to ps</w>
bit ter
sa van
see king</w>
four teen</w>
mo del</w>
jo bs</w>
mu s</w>
messa ges</w>
wi ping</w>
courty ard</w>
secre tary</w>
refle cted</w>
hur ts</w>
con ference</w>
swe ater</w>
fin ds</w>
miser able</w>
tang led</w>
tr aced</w>
p el
as ha
stret ching</w>
rout ine</w>
gr ounds</w>
sc are</w>
cha sing</w>
ro cked</w>
chea p</w>
den i
pre vent</w>
ous y</w>
lea ds</w>
mi stress</w>
for k</w>
y ou
questi oning</w>
a imed</w>
t ity</w>
ar se</w>
bil ities</w>
th under</w>
in f
sy n
d ane</w>
ici ent</w>
hu mi
priv acy</w>
mor s</w>
li mp</w>
la ws</w>
so le
resul ts</w>
ad ren
un ting</w>
c ane</w>
plat form</w>
dami en</w>
ar ch
drea ming</w>
re fer
b ounced</w>
o a
el i</w>
sen ior</w>
s ne
six ty</w>
n i</w>
tal ler</w>
ga u
str ate
recor ds</w>
lau ren</w>
gre g</w>
coun ted</w>
re stra
dat a</w>
ang els</w>
w w
vi si
regar dless</w>
gra sped</w>
a ven
reali sed</w>
lon g
fa il</w>
roa ds</w>
su mm
dev on</w>
cy cle</w>
atten d</w>
inter ior</w>
un ion</w>
ran ch</w>
magaz ine</w>
effor ts</w>
oli ver</w>
lu ck
descri bed</w>
protec ting</w>
ear ned</w>
cra shing</w>
emp ha
impre ssive</w>
bom b</w>
m son</w>
mag ed</w>
x ie</w>
mi ghty</w>
di vi
civi li
val ue</w>
e tt
ch arm</w>
sac rif
mu ffled</w>
bul lets</w>
per su
t ment</w>
d '
deli ght</w>
ni k
bas ket</w>
w ren
overwhel ming</w>
descen ded</w>
sou thern</w>
ep i
certain ty</w>
en try</w>
curren tly</w>
a in</w>
at lan
al o
su peri
indic ated</w>
e tr
dd ling</w>
re ne
examin ed</w>
ra gged</w>
c lean
sm ar
teleph one</w>
repor ts</w>
exha led</w>
to by</w>
li ber
bu sh</w>
smo king</w>
cl er
sp in</w>
cra wl</w>
ve ge
j ill</w>
pa per
invit ation</w>
e mail</w>
at ory</w>
scrat ched</w>
ani e</w>
wi zard</w>
bur y</w>
inten tly</w>
pla yer</w>
b end</w>
eng aged</w>
ven ess</w>
bb er</w>
flo ated</w>
sour ces</w>
ag ents</w>
cur tain</w>
pi c</w>
life time</w>
grou ps</w>
bar rel</w>
h eel</w>
fa il
ss er</w>
app le</w>
smel ls</w>
lau rence</w>
g lu
sc or
col or
mic hel
ka therine</w>
whi sk
u tter</w>
repu tation</w>
c lan
ab or
supp ly</w>
d ley</w>
sho ve</w>
pan ting</w>
under ground</w>
b at</w>
some day</w>
sla mming</w>
a a
tri ump
nu ts</w>
as sign
con fron
ra z
deci sions</w>
re spec
tat too</w>
sha ft</w>
reas onable</w>
were wolf</w>
dol lar</w>
compan ion</w>
king dom</w>
st in</w>
y outh</w>
r ant</w>
vic es</w>
spec ies</w>
lieu tenant</w>
fic ation</w>
su al</w>
tra vis</w>
s ack</w>
to ler
o ak</w>
prison er</w>
doc tors</w>
ni c</w>
a z
bo w
surpri sing</w>
go ssi
re called</w>
na il</w>
ou ter</w>
ba se
n an</w>
cre ating</w>
com men
han ding</w>
defe at</w>
fortun ate</w>
lim ited</w>
jo sie</w>
mo tor
op tions</w>
deliber ately</w>
d ur
fil es</w>
flash light</w>
b ore</w>
jo y
2 0</w>
dar ed</w>
al ong
re becca</w>
fear s</w>
hel met</w>
neck lace</w>
p ine</w>
i den
go al</w>
comman ded</w>
m bles</w>
hi re</w>
fa i
fi res</w>
eli se</w>
vel vet</w>
spor ts</w>
0 00</w>
step hen</w>
no stri
tr y
s anc
comp ani
char ming</w>
along side</w>
te ssa</w>
sin s</w>
puni shment</w>
believ ing</w>
fli p</w>
qu ality</w>
ex tra
wash ington</w>
to ssing</w>
ac cur
gentle men</w>
th ur
nichol as</w>
vag u
wait ress</w>
cu ps</w>
flick ered</w>
bour ne</w>
comfor tably</w>
mar gar
pa th
l ings</w>
ati on
tr ed</w>
tin a</w>
ac ade
ra fe</w>
re quest
stubb orn</w>
ro d</w>
autom at
pra yed</w>
ad dic
hear ts</w>
an ton
su ici
swi m</w>
ha tred</w>
di shes</w>
at edly</w>
chi ca
th ouse</w>
u ne
len der</w>
drag ons</w>
de ter
spi der</w>
ja h</w>
descri be</w>
hea ven
emp ire</w>
ne at
pre y</w>
bro w
tou ri
cla sped</w>
wester n</w>
increas ed</w>
vic tory</w>
kir a</w>
po pu
gra bs</w>
wor kers</w>
russi an</w>
preten ded</w>
mi ster</w>
tal ent</w>
cle ver</w>
sa mu
sho e</w>
na p
l ang
sla p</w>
sandwic h</w>
ka y
wal ker</w>
. com</w>
ro cky</w>
continu ing</w>
mir acle</w>
adju sted</w>
pi pe</w>
gu st</w>
cur tains</w>
cerem ony</w>
chica go</w>
rea ds</w>
pen etr
affec ted</w>
po ison</w>
du sty</w>
d ates</w>
bu shes</w>
repor ted</w>
a she</w>
ri son</w>
co oper</w>
di g
j uni
hu gh</w>
p ted</w>
guar an
squee zing</w>
th al</w>
ac les</w>
gre en
popu lar</w>
p han
seem ingly</w>
occa sion</w>
ais le</w>
good ness</w>
sacrif ice</w>
el der</w>
pra yer</w>
ul ts</w>
camer as</w>
gu ed</w>
bu ll</w>
ju ice</w>
fe eding</w>
gui ded</w>
san g</w>
kno b</w>
ama zed</w>
fair y</w>
b in</w>
amon g
ad ding</w>
bu zz
at mo
fin anci
speci fic</w>
fil m</w>
cu sto
mo l
en tal</w>
v ation</w>
cru sh</w>
among st</w>
ea ger
sin king</w>
embarra ssment</w>
seven teen</w>
bri ghtly</w>
scar s</w>
humi li
wor rying</w>
ph ones</w>
jen ks</w>
g ur
shel ves</w>
savan nah</w>
re acher</w>
ang rily</w>
s lender</w>
un locked</w>
at op</w>
contem pl
ad ult</w>
absolu te</w>
e ing</w>
pe t
re m
after ward</w>
stea m</w>
serv ation</w>
hi ts</w>
br iti
god damn</w>
an th
sni ffed</w>
excit ing</w>
etern ity</w>
me gan</w>
under wear</w>
pra y</w>
ru b</w>
mon ica</w>
in '</w>
briti sh</w>
ste fan</w>
prot ested</w>
ca ssi
mat ching</w>
territ ory</w>
thank fully</w>
na k</w>
lo cker</w>
inti mate</w>
avoi ded</w>
an ch
fol ding</w>
for mal</w>
fr anti
out fit</w>
cu ts</w>
parti es</w>
wrink led</w>
cr un
coun ty</w>
r oughly</w>
g lowed</w>
deman ding</w>
jo ey</w>
colle ct</w>
betra yed</w>
ru th</w>
tit le</w>
stu di
glar ing</w>
mo bile</w>
dra ped</w>
assa ult</w>
genu ine</w>
k not</w>
dar ker</w>
ry der</w>
ther a
star k</w>
f it
squ inted</w>
fi shing</w>
z ack</w>
fa de</w>
ali a</w>
toi let</w>
tel e
sli m</w>
in her
ph a</w>
a very</w>
vagu ely</w>
prin ts</w>
w ha
yn n</w>
electri c</w>
bea m</w>
fan t
bla des</w>
mat ched</w>
jen na</w>
asha med</w>
1 5</w>
polit ical</w>
n ina</w>
cabin et</w>
ma yor</w>
mon sters</w>
ho mes</w>
li ghter</w>
bar ked</w>
techno logy</w>
ty pical</w>
gru mbled</w>
bu ying</w>
sun shine</w>
neat ly</w>
gg ling</w>
tu be</w>
si pped</w>
dam mit</w>
iti ve</w>
cu shi
sh r
re bel
spo ts</w>
occa sional</w>
cott age</w>
p her</w>
ra iling</w>
nostri ls</w>
m at</w>
d ge
ank les</w>
l ery</w>
oun dings</w>
j ean</w>
ga zing</w>
d read</w>
individu al</w>
al led</w>
flar ed</w>
inha led</w>
sha ky</w>
surr oundings</w>
comp as
ri ghts</w>
weak ness</w>
floo ded</w>
adren aline</w>
ad a</w>
pit ch</w>
gar ion</w>
assu ming</w>
flo ors</w>
sa man
ma r</w>
franti cally</w>
some time</w>
lou is</w>
determin ation</w>
instru cted</w>
t witched</w>
hun ters</w>
f bi</w>
emp lo
comfor ting</w>
snea k</w>
fant asy</w>
domin ic</w>
de struction</w>
medi a</w>
zo e</w>
suspic ion</w>
pack age</w>
shir ts</w>
inter net</w>
cro ss
gr ac
zz led</w>
sta ke</w>
corp se</w>
greg or</w>
le w
est im
a war
ger man</w>
irrit ated</w>
mar ched</w>
i i</w>
ag gre
ul ty</w>
camer on</w>
ar eas</w>
sli ghtest</w>
noti cing</w>
u r</w>
l aced</w>
odd ly</w>
ki es</w>
eleg ant</w>
di sh
sho ving</w>
di son</w>
benef it</w>
fa ding</w>
stri pped</w>
sub tle</w>
shal low</w>
instinc tively</w>
ed en</w>
saman tha</w>
ste ering</w>
guar dian</w>
nu mb</w>
ta p</w>
shou ts</w>
da emon</w>
do ll</w>
1 4</w>
fire place</w>
v est</w>
diamon d</w>
supp or
vi g
t ful</w>
sca pe</w>
mid st</w>
inten d</w>
x on</w>
sc hi
gigg le</w>
ca therine</w>
pe aceful</w>
f its</w>
sli ck</w>
ja se</w>
visit ing</w>
blu shed</w>
appo intment</w>
ab i
re mark
stat us</w>
stand ard</w>
sel fish</w>
ra m</w>
appro val</w>
e h</w>
e ff
ar ch</w>
helicop ter</w>
colle cted</w>
t ations</w>
pier ce</w>
k ey
as sure</w>
ab s
e ps</w>
ang led</w>
pe ering</w>
am elia</w>
pur chase</w>
af fair</w>
pa thetic</w>
war e
samu el</w>
gro cer
devel oped</w>
blan kets</w>
reali zation</w>
soo thing</w>
re vel
a we</w>
gran ted</w>
basi cally</w>
recei ve</w>
me ters</w>
j i
po ked</w>
ga sping</w>
comple ted</w>
qu es</w>
se aled</w>
sp er</w>
sma shed</w>
he i
ch at</w>
day light</w>
comm itted</w>
oun ce</w>
sum mon
stea dily</w>
zz ie</w>
ho p
sh re
el e</w>
att or
pan icked</w>
sy dney</w>
moun ted</w>
momen tarily</w>
zz le</w>
s i</w>
worl ds</w>
preci sely</w>
argu ing</w>
sit ion</w>
ph s</w>
x a
lu is</w>
pain fully</w>
man eu
temper ature</w>
min or</w>
se du
san dy</w>
mper ed</w>
pro pped</w>
mea sure</w>
m ing
poli shed</w>
a .</w>
vic ti
me g</w>
ali zed</w>
stagg ered</w>
ne tt</w>
qu o
suc ce
cho ices</w>
c ities</w>
1 3</w>
lu mp</w>
cand le</w>
wa shing</w>
exa sper
nat alie</w>
fir ing</w>
thu r</w>
ga p</w>
deli ver</w>
cand les</w>
w el</w>
eng ine
strang ers</w>
lat ter</w>
flu sh</w>
coun ting</w>
ach ers</w>
do zens</w>
base ball</w>
we b
stic ks</w>
dep ths</w>
whir led</w>
du mped</w>
vi vi
si mul
be aten</w>
go ti
tan ner</w>
guit ar</w>
gr in
wi shes</w>
lea ped</w>
influ ence</w>
er a</w>
elec tr
em per
vac ation</w>
ai den</w>
man sion</w>
atmo sphere</w>
af ri
sk ill</w>
ti ger</w>
whe els</w>
ca de</w>
rob in</w>
bear ing</w>
signific ant</w>
ba sic</w>
pit ched</w>
phi l</w>
san ity</w>
p ound</w>
ja r</w>
sp ray</w>
polit ely</w>
ti s
in spir
ca ss
ca in</w>
luck ily</w>
od ds</w>
mu si
sp ear</w>
tro ops</w>
ro cking</w>
attemp ting</w>
z one</w>
comb ination</w>
p aced</w>
lea gue</w>
a da
consu med</w>
wi s
wa sted</w>
blu r</w>
ep ti
le gi
el yn</w>
lea p</w>
par ker</w>
at tracted</w>
chu ck</w>
skir ts</w>
abs ence</w>
any a</w>
bo thering</w>
low ering</w>
argu ed</w>
ser ena</w>
n es</w>
be th
advan ced</w>
nor a</w>
sna pping</w>
se cu
re covered</w>
u ttered</w>
ro man</w>
blu sh</w>
than ked</w>
st it
ob jec
po l
cough ed</w>
j ones</w>
vie ws</w>
ar ies</w>
pro ph
r in</w>
ey eli
con ver
automat ically</w>
sp on
statu e</w>
fol k</w>
el ding</w>
ma ssa
m our
ne t
lea h</w>
swir ling</w>
ck ling</w>
eyeli ds</w>
ag ne</w>
tu g</w>
head ache</w>
gr itted</w>
fran tic</w>
ch or
blur ted</w>
blo cking</w>
k or
ho pped</w>
tion less</w>
iden tity</w>
con tain
rec eption</w>
mon itor</w>
fif th</w>
hor n</w>
equ al</w>
c had</w>
ani sh</w>
ta vi</w>
gho sts</w>
un ks</w>
sympa thy</w>
judg ment</w>
co a
terri bly</w>
cam pus</w>
overwhel med</w>
clar i
dest ination</w>
ff le</w>
brea ks</w>
son gs</w>
cha ins</w>
lan a</w>
bo ston</w>
app e
tex as</w>
che er
en counter</w>
appar ent</w>
mag n
any time</w>
chan nel</w>
gan g</w>
wal let</w>
al pha</w>
fri dge</w>
en sure</w>
f itting</w>
ling ering</w>
b bit</w>
stor ed</w>
hi stor
cu p
re du
melo dy</w>
to ast</w>
be comes</w>
in ity</w>
imag in
ha m
squ e
le v
mu se
b age</w>
victi ms</w>
spar hawk</w>
ab sen
viol ently</w>
b bles</w>
tu gging</w>
t ance</w>
cen tre</w>
pen ny</w>
tat to
m ouse</w>
gree ting</w>
wan dering</w>
1 8
ha unted</w>
ma s
dre sses</w>
se at
ne at</w>
comp ound</w>
con fli
comb at</w>
un easy</w>
horri fied</w>
fo cu
qu e
a .m.</w>
re sist
er ection</w>
no ises</w>
r he
ro y</w>
z el</w>
is m</w>
affec tion</w>
bu cket</w>
brea thless</w>
cur e</w>
na vy</w>
non sense</w>
f on
en ne</w>
is a</w>
he m</w>
y aw
li fel
ke t
j i</w>
survi val</w>
y i
electri city</w>
zom bie</w>
sti ly</w>
mar es</w>
zer o</w>
si ded</w>
human ity</w>
jer ry</w>
car l</w>
ou tra
il ling</w>
jun gle</w>
an gie</w>
ral ph</w>
po is
da me</w>
se v
cra wling</w>
gi a</w>
phi l
majest y</w>
curi ously</w>
desp air</w>
distur bed</w>
bo x
stri king</w>
swi ft</w>
mu sed</w>
we b</w>
thro bbing</w>
cho o
fra med</w>
so m</w>
bu d
se ized</w>
gener ally</w>
ga il</w>
consequ ences</w>
tra iler</w>
dis ease</w>
sho t
champ agne</w>
treas ure</w>
in ven
sha do
need le</w>
flin ched</w>
br aced</w>
ste aling</w>
crimin al</w>
sof tened</w>
to x
sel ling</w>
gen e</w>
d ling</w>
j eep</w>
mu scu
y ton</w>
dal las</w>
esc ort</w>
ff ling</w>
mou ths</w>
. s.</w>
jun e</w>
ho st</w>
grand pa</w>
main tain</w>
t ings</w>
mir r
adven ture</w>
ser vices</w>
regar ded</w>
tu m</w>
de cl
ti cket</w>
bar bar
kar a</w>
gi fts</w>
be ck
ja i
licen se</w>
eli jah</w>
re vol
be ings</w>
w ei
dest iny</w>
tw ink
distr action</w>
jo king</w>
ex hi
wo od
br ac
li cking</w>
hur ri
de fi
anth ony</w>
pan el</w>
bor der</w>
emper or</w>
ar thur</w>
no v
convers ations</w>
accomp ani
di men
ra m
tr ous
i zzy</w>
effec ts</w>
deser ted</w>
di um</w>
pr int</w>
ur ged</w>
treat ment</w>
sk inny</w>
in ting</w>
accompani ed</w>
en vir
con vic
r ac
fail ure</w>
p our</w>
uni que</w>
lun ged</w>
swee ping</w>
mag nific
ro t</w>
p acing</w>
tre ating</w>
j ar
down town</w>
x ture</w>
gra vel</w>
cur l</w>
ru sty</w>
sp rang</w>
el abor
anno ying</w>
ill ness</w>
hau led</w>
weal th</w>
ou tw
pr on
desper ation</w>
to ss</w>
t wit
ine se</w>
squ ad</w>
teen th</w>
li p
war y</w>
ru m
regar ding</w>
cli ents</w>
z zed</w>
dri fting</w>
im mortal</w>
bar rier</w>
neighb ors</w>
ho vering</w>
r and
anno y
valu able</w>
lo cking</w>
di zzy</w>
suit case</w>
an or</w>
inde pen
temp ted</w>
note book</w>
cor n</w>
discu ssed</w>
dre sser</w>
str ands</w>
sur ge</w>
sou p</w>
ca sting</w>
stal ked</w>
gradu ally</w>
ru mors</w>
n ick
itali an</w>
custom ers</w>
remin ding</w>
fini shing</w>
ch inese</w>
cla pped</w>
c roo
spea ks</w>
divor ce</w>
posse ssion</w>
sc ale</w>
disapp earing</w>
a im</w>
nu mer
sur ve
ma del
instinc ts</w>
flu ttered</w>
c tor</w>
gl ory</w>
rea d
car los</w>
hesit ate</w>
no ble</w>
scrat ch</w>
stab bed</w>
so b</w>
.. ..
muscu lar</w>
po sure</w>
ne goti
compe t
eng ag
wor ries</w>
erup ted</w>
with drew</w>
medic ine</w>
il la</w>
to pic</w>
pe st</w>
i ds</w>
re x</w>
expla ining</w>
lon ging</w>
apolo gy</w>
win k</w>
hel ps</w>
night mares</w>
thri lled</w>
st even</w>
margar et</w>
sy st
f en
bo ats</w>
cri mson</w>
t acti
sk et
ac qua
volu me</w>
disp la
cre ek</w>
pow der</w>
o wed</w>
ne tte</w>
inv ite</w>
er on</w>
ash ley</w>
wear y</w>
d ity</w>
phi lo
ling ered</w>
dri ft</w>
da w
bur ns</w>
arti cle</w>
bel o
concentr ated</w>
he aled</w>
l ance</w>
vehi cles</w>
p acking</w>
bil ls</w>
su v</w>
guar ded</w>
cap ture</w>
sugge stion</w>
di sor
sle eves</w>
wait er</w>
isa bella</w>
ta pping</w>
juni or</w>
perman ent</w>
5 0</w>
do ve</w>
re in
land scape</w>
sc ur
pier cing</w>
i ley</w>
thor oughly</w>
demon str
tun e</w>
sa int</w>
wil low</w>
b oul
as sho
cat s</w>
intellig ent</w>
wat ch
wi der</w>
u ses</w>
envir on
per form
mel ess</w>
re marked</w>
at ri
mr s</w>
coun ter
fra gi
gossi p</w>
c tive</w>
s eal</w>
ca m</w>
jas mine</w>
soa p</w>
con struction</w>
laun ched</w>
mp y</w>
hu gging</w>
fragi le</w>
po le</w>
person ality</w>
te aching</w>
st ically</w>
n ell</w>
ju de</w>
i sol
bo dy
gra ham</w>
p earl</w>
eg g</w>
pi es</w>
gue ssing</w>
r and</w>
gen e
suici de</w>
la zy</w>
test ing</w>
cel ls</w>
y u
co ol
differ ently</w>
aver age</w>
mini ster</w>
acci den
si es</w>
win ning</w>
fu el</w>
seem ing</w>
se p
k able</w>
ex ited</w>
plea ded</w>
ar rested</w>
h em
ra il</w>
p ec
pee ked</w>
bl ouse</w>
on y
tempor ary</w>
cur ling</w>
eri a</w>
tor so</w>
ri bb
reco ver</w>
ele anor</w>
thu mbs</w>
introdu ce</w>
pur su
le on</w>
circ ling</w>
o re
el ls</w>
as ed</w>
ra bbit</w>
por tion</w>
si m
witne ssed</w>
re presen
b ling</w>
ru by</w>
de er</w>
nu dged</w>
d son</w>
li ck</w>
com mo
swee p</w>
correc ted</w>
ti ves</w>
sc o</w>
en na</w>
vag ue</w>
in fin
che wed</w>
v om
ben ding</w>
mit ri</w>
lar ry</w>
ware house</w>
pri me</w>
la shes</w>
michel le</w>
exper t</w>
glea ming</w>
g na
fore arm</w>
sal u
ma ker</w>
e th</w>
an a
in ju
trou bled</w>
len e</w>
x im
cu e</w>
pa vement</w>
gr ins</w>
ne ver
da maged</w>
gener ous</w>
impati ent</w>
moun t</w>
r ational</w>
conclu sion</w>
so il</w>
c on</w>
cal lie</w>
ta xi</w>
cl it</w>
stor age</w>
ho vered</w>
stri de</w>
wis dom</w>
war med</w>
financi al</w>
mo s</w>
requ ire</w>
abo ard</w>
wa yne</w>
dra w
ad in</w>
smooth ly</w>
tu mbled</w>
fa st
la yer</w>
a v
d na</w>
pu shes</w>
mo ck</w>
char ges</w>
hand led</w>
co ver
w en
opp on
lew is</w>
scan ning</w>
shud der</w>
de ar
ss en
devel op
cur b</w>
fo x</w>
f oul</w>
robo t</w>
der son</w>
ze ke</w>
hol den</w>
lin da</w>
free zing</w>
so cks</w>
1 0
pil lows</w>
se t
initi al</w>
jud ging</w>
in ely</w>
p iled</w>
com mented</w>
far m
prison ers</w>
fe min
ri a</w>
pa int
exerci se</w>
shot gun</w>
bu ck</w>
impati ently</w>
repor ter</w>
con grat
or ies</w>
decor ated</w>
dr un
b acking</w>
ev a
congrat ul
qu est</w>
n els</w>
le ment</w>
ti re
citi zens</w>
ag it
to ols</w>
si an</w>
deal t</w>
ad dition</w>
sor row</w>
re fri
nu t</w>
ici al</w>
ar rest</w>
pati ently</w>
mon it
lin ing</w>
plun ged</w>
whisk ey</w>
explo de</w>
popul ation</w>
fi ona</w>
de clan</w>
ch ant</w>
sigh s</w>
ha stily</w>
disa ster</w>
y o</w>
deca des</w>
per ry</w>
new ly</w>
nor th
u t</w>
del la</w>
mista kes</w>
hi de
o g
ma dness</w>
descri ption</w>
fac ility</w>
ci an</w>
chi p</w>
di spo
de e
awa k
tou ches</w>
sli ce</w>
lo g</w>
g al</w>
el er
refri ger
bu g</w>
belo ved</w>
ac qu
hard ened</w>
re treat</w>
itu te</w>
jan et</w>
con sul
ve gas</w>
sla m</w>
imag ining</w>
disa gre
pas sion
supp er</w>
acc eler
reg ard</w>
kni ves</w>
mean while</w>
ban ds</w>
st all</w>
boun cing</w>
concentr ation</w>
ic ed</w>
enthusi asm</w>
bu cks</w>
sli ced</w>
ri pping</w>
lea ders</w>
pra ying</w>
miser y</w>
tw ir
sa ddle</w>
m ation</w>
pa st
distr act</w>
brea th
studi o</w>
co stu
spea ker</w>
je ff
con tain</w>
ban g</w>
pro file</w>
w est
ti ck</w>
shu ffled</w>
f are</w>
om i</w>
cha mb
g loo
positi oned</w>
assign ment</w>
inti mid
de pu
i ge</w>
m acy</w>
smooth ed</w>
lang don</w>
bu zz</w>
sa w
d ors</w>
thought fully</w>
ear th
rep lies</w>
ad mi
inten tions</w>
fr ance</w>
roo ts</w>
as signed</w>
awar eness</w>
crea se</w>
z o</w>
be ds</w>
dra ma</w>
extre me</w>
ro ses</w>
pi g</w>
muse um</w>
regi ster</w>
attor ney</w>
christ op
un certain</w>
pi ss</w>
k it</w>
ti p
awk wardly</w>
al y</w>
bur den</w>
ro om
refu sing</w>
cl inging</w>
cel est
zom bies</w>
to y</w>
tane ously</w>
c ate</w>
a while</w>
less ons</w>
thought ful</w>
f s</w>
om in
cor d</w>
.. ....</w>
la sted</w>
co in</w>
ssi vely</w>
cher ry</w>
ter ia</w>
ha l</w>
gar bage</w>
be cky</w>
ratt led</w>
sun glasses</w>
li s</w>
trous ers</w>
deci ding</w>
mil ler</w>
ro m
le vels</w>
tu es
jeal ousy</w>
bu tter</w>
st rolled</w>
cu ffs</w>
assass in</w>
a woke</w>
ma dame</w>
con fin
ca kes</w>
indu l
i est</w>
car go</w>
sc a</w>
ol as</w>
xa vier</w>
to oth
ca sey</w>
t ests</w>
whi p</w>
cler k</w>
s ations</w>
inev itable</w>
vi k
hec k</w>
li on
gover nor</w>
t ine</w>
sp illing</w>
dar ius</w>
li fts</w>
har per</w>
c .</w>
surren der</w>
win ding</w>
visit ors</w>
inju ries</w>
gri ffin</w>
resist ance</w>
jo an</w>
so fia</w>
col li
wh ore</w>
swir led</w>
rec ru
wor d
sto ve</w>
per ched</w>
bra ins</w>
attemp ts</w>
al l
pas ses</w>
her d</w>
t land</w>
be wil
an aly
re ed</w>
mel anie</w>
mar co</w>
j en</w>
am bul
fanta stic</w>
rig id</w>
c he</w>
ti ff
incl ined</w>
loy al</w>
m ath</w>
shi vering</w>
discu ssing</w>
va r</w>
can v
seven ty</w>
a pri
paper work</w>
slo pe</w>
remin der</w>
ma xi
kni ghts</w>
di ana</w>
dismi ssed</w>
tre y</w>
sha des</w>
fashi oned</w>
lar a</w>
sin cer
appreci ated</w>
bo ld</w>
the ater</w>
mil lions</w>
o ts</w>
gra vity</w>
c ans</w>
alli son</w>
ro ber
li zzie</w>
mad die</w>
wed ne
nor thern</w>
k an
sp anish</w>
ur gent</w>
hat ch</w>
du ck</w>
dev o
ger y</w>
mar shall</w>
creep y</w>
conne ct</w>
over come</w>
mach ines</w>
il le</w>
mon o
cru mpled</w>
con du
r ats</w>
kin da</w>
superi or</w>
te ddy</w>
ambul ance</w>
ch ina</w>
spi ke</w>
sen ator</w>
fo yer</w>
s worn</w>
r h
al together</w>
zz ling</w>
lo gic</w>
w are</w>
por tal</w>
con spir
cla mped</w>
thor ne</w>
perform ance</w>
war ren</w>
exhau stion</w>
fac tory</w>
ed ged</w>
arti st</w>
thu d</w>
bar k</w>
mor tals</w>
jour nal</w>
fri ghtening</w>
pr ou
ett es</w>
a ura</w>
de x</w>
annoy ance</w>
eu rope</w>
em ber</w>
dang ling</w>
hea ved</w>
communic ation</w>
au tu
promi ses</w>
per fu
pon y
ber g</w>
spark ling</w>
spar ks</w>
canc er</w>
a sp
plea ding</w>
mic ah</w>
sh i</w>
mon i
e con
ad ditional</w>
ha ze</w>
in qui
tra iling</w>
t ti
compla ined</w>
str ings</w>
in surance</w>
b lows</w>
men u</w>
jewel ry</w>
me ssed</w>
clar y</w>
on line</w>
kne eling</w>
eye ing</w>
bu bble</w>
dra matic</w>
p ru
ra ged</w>
r ack</w>
se ssion</w>
in sides</w>
sm acked</w>
ex ag
eager ly</w>
der ness</w>
al bert</w>
ox y
gg le</w>
pin ched</w>
no vel</w>
t us</w>
ro of
comm ents</w>
in se
re ci
mat ely</w>
par ent</w>
mi schi
fr anc
loun ge</w>
apo l
sa fer</w>
neigh bor</w>
ad mini
de par
bru ises</w>
sigh ing</w>
cass andra</w>
al u
spar k</w>
ru bber</w>
pil ls</w>
car ol</w>
sco wl</w>
e book</w>
sho ps</w>
bal d</w>
mi sty</w>
dist inct</w>
i da</w>
ac cused</w>
hu ddled</w>
dou g</w>
sweat y</w>
pre ston</w>
loy alty</w>
es a</w>
re sen
a ment</w>
re treated</w>
mi xture</w>
dea ths</w>
coo kies</w>
echo ing</w>
car son</w>
ra y
ken dra</w>
tiff any</w>
da shed</w>
fun c
gre et</w>
thank ful</w>
who a</w>
ca vern</w>
y al</w>
re qui
me chan
per form</w>
tal es</w>
' cause</w>
terri fying</w>
lim its</w>
ch a</w>
ten d</w>
arri ving</w>
cla i
arrog ant</w>
bar tender</w>
tor ch</w>
be ats</w>
lan ter
mo ist</w>
e ot
shor ter</w>
educ ation</w>
b on</w>
inter f
f ever</w>
deli m</w>
religi ous</w>
eot delim</w>
ty pes</w>
tues day</w>
un believ
m ire</w>
ban ks</w>
mor ti
floo d</w>
symbo l</w>
sha pes</w>
ch em
shru gs</w>
cur ves</w>
re served</w>
inj ury</w>
ac i
syst ems</w>
bol ted</w>
t ack
ga ining</w>
chi ps</w>
virg in</w>
disc om
spo on</w>
di al</w>
embarra ssing</w>
re acted</w>
li ssa</w>
cont emp
appre hen
f ically</w>
autu mn</w>
fli cker</w>
ja de</w>
re solve</w>
vi e</w>
attr action</w>
ten ded</w>
sen ti
scar let</w>
fain tly</w>
su res</w>
ev ol
no tion</w>
u ri
m ack
car es</w>
sc an</w>
disapp ro
de mo
im men
lu c</w>
sp ill</w>
vic ious</w>
fol ds</w>
inno c
so bbing</w>
stra w</w>
re moving</w>
y son</w>
compani ons</w>
bea sts</w>
d ana</w>
h h</w>
anc est
s ale</w>
parti ally</w>
comb ined</w>
fe der
ea stern</w>
photogra ph</w>
inter nal</w>
regi stered</w>
teenag er</w>
black ness</w>
tea se</w>
trac y</w>
ici an</w>
ta g</w>
el a</w>
whe el
thin '</w>
distri ct</w>
cla w</w>
wat ches</w>
un likely</w>
stu art</w>
ac ity</w>
se ep
loa ding</w>
pa pa</w>
irrit ation</w>
step han
att acks</w>
un pleasant</w>
arr ange</w>
cour te
wedne sday</w>
m all</w>
v eyed</w>
pony tail</w>
m ack</w>
fun ction</w>
di sci
multi ple</w>
it es</w>
j ab
cho king</w>
wel s</w>
bla zing</w>
pro ceeded</w>
relea sing</w>
activ ities</w>
stra p</w>
cow boy</w>
ex clu
app lau
le a</w>
do me</w>
tal i
secur ed</w>
pen cil</w>
mee tings</w>
por tra
coinci dence</w>
offici ally</w>
vi sions</w>
anc ing</w>
tem ples</w>
refriger ator</w>
ali st</w>
lon ged</w>
ou ts</w>
y l</w>
tor tured</w>
ra pid</w>
produ ce</w>
fier cely</w>
e z
sun ny</w>
sk im
co dy</w>
drea d
sw ell</w>
s man</w>
positi ons</w>
doub ts</w>
sha ken</w>
pat ri
exag ger
pla yers</w>
magnific ent</w>
cru shing</w>
insul t</w>
psychi c</w>
reluc tant</w>
thur sday</w>
st ung</w>
sun set</w>
rom ance</w>
par ano
vie wed</w>
swe ating</w>
laun dry</w>
hy ster
lin ked</w>
ch ess</w>
stra y</w>
jon as</w>
gi l</w>
di a
cor n
p ecu
focu sing</w>
free ze</w>
strea ming</w>
mou thed</w>
down ward</w>
deli ghted</w>
cri sp</w>
dar y</w>
cont rol
d ash</w>
sla ves</w>
ec st
var iety</w>
shrie ked</w>
apri l</w>
pro vo
hu m</w>
stra pped</w>
trac king</w>
la bor
clai ms</w>
ten t
spec ts</w>
il legal</w>
de dic
indi an</w>
fi ery</w>
ti cs</w>
invit ing</w>
stra in</w>
st in
spec ul
th read</w>
sse l</w>
mean ing
broo ke</w>
cr acking</w>
wa y
for getting</w>
eigh ty</w>
th ra
bi dden</w>
whi tney</w>
er ly</w>
ac custom
whi stle</w>
ro ls</w>
at t</w>
bon nie</w>
phi lip</w>
ack er</w>
ti de</w>
dwar f</w>
s lung</w>
sc ore</w>
san ta</w>
v o</w>
ob jects</w>
el se
accustom ed</w>
evid ently</w>
cem e
tu cker</w>
t emer
help ful</w>
me ch
ar rows</w>
s ly</w>
obli vious</w>
gr anny</w>
deman ds</w>
flick ering</w>
fe e
fran ce
off ended</w>
sw o
pp les</w>
gra v
ol dest</w>
ag ency</w>
ad ults</w>
lar gest</w>
un ts</w>
du ties</w>
cla d</w>
tran sp
swa yed</w>
gre ek</w>
expl ore</w>
tran sport</w>
ski pped</w>
pas sa
ax e</w>
al tar</w>
p ond</w>
mon t</w>
jo el</w>
au gust</w>
bo t</w>
sur ged</w>
k ur
---- ----
spec tive</w>
al er
scen ari
har t</w>
char ity</w>
croo ked</w>
bru ised</w>
pic ks</w>
genu inely</w>
cla ss
distur bing</w>
mo ther
fu ck
drea m
vin ce</w>
u i
stun ning</w>
ba sis</w>
don na</w>
diffic ulty</w>
cau tion</w>
car a</w>
ci es</w>
sma sh
thu mp</w>
ma dison</w>
incre dul
sa un
prou dly</w>
bru tal</w>
fe sti
d ous</w>
shif ter</w>
qu ir
fi ghter</w>
sn ick
sli des</w>
del u
cur sing</w>
ace fully</w>
ti res</w>
fic tion</w>
el derly</w>
ste in</w>
degre es</w>
fro st</w>
offic es</w>
it em</w>
bri s</w>
poli cem
hun ched</w>
ju sti
col m</w>
par don</w>
vir us</w>
deni ed</w>
mo tionless</w>
pier ced</w>
tal ity</w>
f in</w>
ti ghtening</w>
mo tel</w>
el ded</w>
ca ss</w>
aven ue</w>
tang le</w>
ro pes</w>
after wards</w>
care ssed</w>
ton es</w>
tun nels</w>
fil thy</w>
ha y
exa mine</w>
elabor ate</w>
writ er</w>
r ounds</w>
na p</w>
accep ting</w>
ac knowledge</w>
roo t</w>
an ced</w>
cap ital</w>
pregn ancy</w>
na omi</w>
au to
me ssy</w>
ni k</w>
so lit
mel t</w>
gu ts</w>
employe es</w>
se mi</w>
identi fy</w>
tal ks</w>
bu mped</w>
j agged</w>
chal leng
fre sh
fo ster</w>
dau ghters</w>
repe atedly</w>
mu r</w>
concer ns</w>
che er</w>
assho le</w>
stephan ie</w>
lu s</w>
ei l</w>
tu ary</w>
assist ance</w>
con stru
star ving</w>
re turns</w>
pa using</w>
beth any</w>
car rie</w>
f at
phil lip</w>
be y</w>
mal colm</w>
v ice</w>
import ance</w>
pa irs</w>
p re</w>
sta in</w>
un aware</w>
sp ur
pri ze</w>
win ds</w>
un happy</w>
high est</w>
canv as</w>
st ir</w>
st eep</w>
numer ous</w>
me tal
temer aire</w>
te x</w>
ju les</w>
else where</w>
di ans</w>
mom my</w>
stron gly</w>
jec tion</w>
adv ance</w>
dor ian</w>
di mitri</w>
z ach
t z</w>
di aled</w>
~ ~
th eless</w>
raz or</w>
christop her</w>
techn ically</w>
ob lig
batt le
retri eved</w>
att acking</w>
absen tly</w>
hec tor</w>
mer ry</w>
sco oped</w>
phra se</w>
never theless</w>
defe ated</w>
coun tless</w>
re place</w>
neg ative</w>
mp tion</w>
tro y</w>
brac el
bar re
a p
1 6</w>
don o
dr yly</w>
pat rol</w>
p .m.</w>
s our</w>
che wing</w>
lur ched</w>
confi d
tur al</w>
su ited</w>
qu et</w>
absor bed</w>
bru ce</w>
fli pping</w>
bi shop</w>
may a</w>
le on
retri eve</w>
f ling</w>
possi bilities</w>
bit es</w>
zi pped</w>
ali ke</w>
ad dressed</w>
wo ken</w>
re sources</w>
f ond</w>
del ay</w>
fre ely</w>
back yard</w>
sal ad</w>
magn us</w>
ob sc
lea k</w>
gy p
ali ens</w>
pa ths</w>
s ers</w>
don ald</w>
cy n
will ingly</w>
x y</w>
bal l
pati ents</w>
au stin</w>
nap kin</w>
bi ble</w>
mur phy</w>
ele ss
vo id</w>
j ag
sac red</w>
furi ously</w>
dea d
plea san
paint ings</w>
sa sha</w>
lo dge</w>
vi c</w>
ve ssel</w>
nine ty</w>
ch el
k een</w>
sav age</w>
fur rowed</w>
ceme tery</w>
smel ling</w>
pre ven
gigg ling</w>
el len</w>
sleep y</w>
dis co
cla iming</w>
defen sive</w>
sto res</w>
bla sted</w>
sou th
test ed</w>
mb ly</w>
scri pt</w>
ar ian</w>
ro gue</w>
practi cal</w>
bi zar
pro p
el ine</w>
ti ming</w>
r itual</w>
pp ling</w>
buzz ing</w>
i ze</w>
fla shes</w>
effec tive</w>
deli very</w>
ling er</w>
lei gh</w>
k ings</w>
cul ture</w>
cr acks</w>
atten ded</w>
so bs</w>
cauti ous</w>
summon ed</w>
pro spect</w>
rest less</w>
inde x</w>
fascin ated</w>
colu mn</w>
reas suring</w>
up side</w>
illu sion</w>
al lie</w>
t ons</w>
st icky</w>
en countered</w>
were wolves</w>
inter rog
c able</w>
bea med</w>
app lied</w>
par tly</w>
bat tered</w>
frank ly</w>
fea thers</w>
wan der</w>
sen sing</w>
me tho
oxy gen</w>
grow th</w>
stu dies</w>
si ly</w>
dre y</w>
de pre
bar ri
promi sing</w>
blin ding</w>
gen ius</w>
femin ine</w>
con trac
coo ked</w>
refer ring</w>
eu r</w>
lo vers</w>
dru m</w>
ran n</w>
bed side</w>
rai ses</w>
affec t</w>
spra wled</w>
pau ses</w>
pun c
ic ia</w>
fel ix</w>
smu g</w>
co al</w>
sen sual</w>
ear n</w>
din er</w>
charac ters</w>
stu mbling</w>
oc to
sil ky</w>
persu a
expre ssions</w>
swal lowing</w>
sm en</w>
weal thy</w>
my r
ne phe
li king</w>
te gr
hi t
har m
sta b</w>
j .</w>
sac ri
blo s
fle et</w>
bu bb
bac on</w>
glor ious</w>
f ans</w>
pur chased</w>
fli ck</w>
identi cal</w>
correc tly</w>
te achers</w>
secre tly</w>
ru mbled</w>
di ag
convin cing</w>
passen gers</w>
alex andra</w>
di se</w>
wel com
swa m</w>
cal med</w>
tri be</w>
jo int</w>
ri k</w>
cam pa
ei ved</w>
le en</w>
jac kie</w>
g ee
n ard</w>
speci fically</w>
hi ss</w>
foun tain</w>
vo te</w>
necess arily</w>
mean time</w>
eng ines</w>
shee p</w>
di sin
disco very</w>
mo o
au drey</w>
request ed</w>
gr unt</w>
exc eption</w>
ab sur
kin dly</w>
st acked</w>
consci ously</w>
gul ped</w>
sa il</w>
su cks</w>
origin ally</w>
eli za</w>
me th
de bris</w>
admir ed</w>
inter pre
acknowle dged</w>
ti a</w>
aband on</w>
lin col
le dge</w>
cat ches</w>
gu lar</w>
chee k
rec ep
ble ssed</w>
hu mming</w>
gi ble</w>
1 7</w>
stre ssed</w>
re tired</w>
hor se
ga y</w>
con sole</w>
creep ing</w>
an ni
an gui
ro aring</w>
pu ppy</w>
amaz ement</w>
pi ano</w>
heaven s</w>
pho en
hea p</w>
choo sing</w>
de ss
goo ds</w>
depen ds</w>
len a</w>
sco pe</w>
ad en</w>
un familiar</w>
sa m
co w</w>
mista ken</w>
m sy</w>
tru cks</w>
bur nt</w>
pur sed</w>
fu mbled</w>
france sca</w>
d wel
celebr ate</w>
mexic o</w>
li gh
welcom ed</w>
disgu sting</w>
ra ging</w>
nine teen</w>
bu mps</w>
ven ge
grat itude</w>
run g</w>
remin ds</w>
bra ss</w>
a k
go ose</w>
dev ast
ad just</w>
relation ships</w>
el o
conclu ded</w>
relati vely</w>
qu in
resi sted</w>
hu t</w>
ul a</w>
out stretched</w>
me als</w>
happ ier</w>
the irs</w>
mo ist
infec ted</w>
drow ned</w>
stir ring</w>
collap se</w>
st ella</w>
clau de</w>
conc ept</w>
ac commo
ro ck
disgu sted</w>
cli pped</w>
cal lum</w>
mo tions</w>
fa e</w>
as her</w>
organi zation</w>
car ess</w>
acciden tally</w>
resu med</w>
back seat</w>
sor ted</w>
bri ghter</w>
betra yal</w>
ma scul
gri mly</w>
pic tured</w>
cassi dy</w>
op ti
recog n
clo ses</w>
stor med</w>
lu ce</w>
d .</w>
bu zzed</w>
saw yer</w>
fla g</w>
apolo ge
flu id</w>
ex qui
tra u
sanc tuary</w>
ri m</w>
pla ys</w>
compli ment</w>
fra g
compu ters</w>
wa sting</w>
logi st</w>
thre ats</w>
for ce
recogn ition</w>
tre mble</w>
sun k</w>
indu stri
com merci
th ie
displa yed</w>
un dead</w>
cre ation</w>
blur red</w>
on e
docu ments</w>
da zed</w>
un fortunate</w>
glit tering</w>
dal ton</w>
shu tting</w>
sev ere</w>
lincol n</w>
gal lery</w>
con firm</w>
murder er</w>
di scre
air craft</w>
el ly</w>
religi on</w>
v ors</w>
sp ells</w>
dono van</w>
con tribu
rob es</w>
u .s.</w>
bur g</w>
val erie</w>
li lly</w>
re tor
arrang ements</w>
obe y</w>
ga ping</w>
f itted</w>
bea ms</w>
le e
sto ck
wr ath</w>
hope ful</w>
re sort</w>
vie wing</w>
pu mping</w>
com plain</w>
suspici ously</w>
conditi ons</w>
jo kes</w>
ab ra
lec ture</w>
pe eled</w>
conveni ent</w>
jour n
tru sting</w>
ra d</w>
loo p</w>
elli ot</w>
z ar</w>
te ch</w>
dra in</w>
sc out</w>
illumin ated</w>
arrang ement</w>
a x</w>
in sist
expre ss</w>
pri or</w>
ir ing</w>
e erie</w>
teen age</w>
kel lan</w>
deter mine</w>
weak ly</w>
compet ition</w>
virg in
lux ury</w>
gar dens</w>
tis sue</w>
che mi
ar es</w>
a ur
jo ked</w>
guaran tee</w>
rh ys</w>
leg end</w>
suc ceeded</w>
bizar re</w>
environ ment</w>
ski p</w>
ho p</w>
fol lows</w>
re pair</w>
anton io</w>
non eth
noneth eless</w>
ke ith</w>
st illed</w>
dep th</w>
co ordin
s ened</w>
acade my</w>
stic s</w>
scar f</w>
in ser
ga w
prin cip
enter tain
thri ll</w>
1 8</w>
vi ously</w>
c eased</w>
sur gery</w>
promp ted</w>
law yers</w>
scra ped</w>
photogra phs</w>
inclu de</w>
pi per</w>
net work</w>
lea gues</w>
compre hen
tri cks</w>
str and</w>
stom ped</w>
coun sel
n ancy</w>
mat ure</w>
fe tch</w>
visit or</w>
rela xing</w>
mi ld</w>
ful ness</w>
confe ssed</w>
cor a</w>
sh ep
dar cy</w>
vi al</w>
expla ins</w>
encoura ged</w>
drow ning</w>
chuck les</w>
ra ys</w>
di ve</w>
app earing</w>
schedu led</w>
el f</w>
w es</w>
le vi</w>
hal ls</w>
r ang
sh ea
min i</w>
ulti mate</w>
cr inged</w>
eli min
mit ch
mbl ance</w>
proph ec
mon k</w>
esc orted</w>
pati o</w>
ev ing</w>
so oth
ol y
an e
perfec tion</w>
ba star
polit ics</w>
finger nails</w>
sal v
dd les</w>
ch ann
ta ils</w>
hal ted</w>
ess ence</w>
dar ing</w>
mar ine</w>
develop ment</w>
isa bel</w>
believ es</w>
puzz le</w>
swee tie</w>
perfu me</w>
gener ation</w>
sta ys</w>
c rai
weigh ed</w>
stro kes</w>
li mit</w>
indic ating</w>
indi gn
le t
mur mur</w>
bel ls</w>
den nis</w>
discom fort</w>
min ded</w>
st ur
examin ing</w>
circu lar</w>
sarca sm</w>
laun ch</w>
home work</w>
pla in
p u</w>
loc ate</w>
el em
innoc ence</w>
swa ying</w>
ch est
wal ter</w>
tri pped</w>
co ins</w>
ho arse</w>
stra ining</w>
remark able</w>
mor ed</w>
isa belle</w>
sten ch</w>
esca ping</w>
le tt</w>
fa iling</w>
se duc
accur ate</w>
hu sky</w>
den se</w>
arou sal</w>
trans l
bra dy</w>
tr acked</w>
c ough</w>
deb t</w>
mu ttering</w>
se ed</w>
ter ry</w>
di sm
patter ns</w>
j an</w>
re spected</w>
oppon ent</w>
desi red</w>
har bor</w>
g in</w>
be e</w>
mar ina</w>
m ma</w>
po king</w>
pri m
squ e</w>
nic ely</w>
l ling</w>
su f
phoen ix</w>
n ative</w>
ju ly</w>
ha zel</w>
ght ness</w>
di stress</w>
x ter</w>
pecu liar</w>
whi l
cal cul
grocer y</w>
bu mp</w>
phi c</w>
civi l</w>
fe males</w>
john son</w>
wa ist
recei ver</w>
posse ss</w>
to ol</w>
off ers</w>
sco ffed</w>
pu pp
rap hael</w>
etern al</w>
thie f</w>
depu ty</w>
parti cip
strate gy</w>
offen se</w>
me dit
angel a</w>
nik ki</w>
a ked</w>
wa x</w>
f ati
whil st</w>
re ward</w>
oper ate</w>
head lights</w>
so da</w>
p lot</w>
ha irs</w>
pic nic</w>
li sted</w>
iti ons</w>
andre a</w>
abi gail</w>
the o</w>
mel ting</w>
pa ja
lit y</w>
organi zed</w>
metal lic</w>
gest uring</w>
fr anci
flor ida</w>
gabri elle</w>
inter national</w>
t itude</w>
bu m</w>
boo m</w>
ta il
snea king</w>
mo thers</w>
kin dness</w>
ac on</w>
un comfortably</w>
ati vely</w>
pier re</w>
pow er
ru mble</w>
po pping</w>
conce aled</w>
prin ted</w>
intri gued</w>
brief case</w>
ti ce</w>
str ous</w>
hon ey
g ing
cr an
col our</w>
v enti
pa ined</w>
engag ement</w>
n ash</w>
co ats</w>
al ities</w>
admini str
thi as</w>
sacri fic
lu ther</w>
j ury</w>
ad ds</w>
co b
co ward</w>
autom atic</w>
l u</w>
di vine</w>
na dia</w>
i v
yel ls</w>
so li
shi fts</w>
h ant</w>
ro se
excit edly</w>
i ons</w>
shif ters</w>
ag ing</w>
ab e</w>
pee k</w>
ho ward</w>
cel lar</w>
recei ving</w>
ho st
vi mes</w>
simul taneously</w>
insi st</w>
de mean
supp re
ru g</w>
di ego</w>
r ho
mom ma</w>
class room</w>
wi ves</w>
tra ditional</w>
pro ven</w>
n in
en ced</w>
consci ence</w>
but ler</w>
scrat ching</w>
imp lic
kit ten</w>
anticip ated</w>
sor cer
estab lished</w>
wor ker</w>
ha tes</w>
it ch</w>
for gi
audi ble</w>
clar ity</w>
uni son</w>
ho t
vi le
ken ne
che erful</w>
r ank</w>
pro po
en da</w>
ra ine</w>
mu st
mo aning</w>
0 s</w>
so ber</w>
cough ing</w>
e e</w>
int act</w>
dri pped</w>
ath le
motor cycle</w>
eu ro
cou sins</w>
challen ged</w>
bu ff
sta ir</w>
i li
anx iously</w>
mo de</w>
en zie</w>
emer ald</w>
americ ans</w>
e ting</w>
evi dent</w>
fu cked</w>
mitch ell</w>
ly dia</w>
practi ced</w>
over night</w>
bu d</w>
bastar ds</w>
. a.</w>
tw enti
promp tly</w>
over ly</w>
mon t
honest y</w>
i ans</w>
slow ing</w>
a y
to ys</w>
as cen
sil hou
be at
u sh
ja ws</w>
gol f</w>
app eal</w>
wre ck</w>
contra st</w>
lu sh</w>
we e</w>
po d</w>
an derson</w>
val ent
ca fe
accomp lished</w>
man dy</w>
investig ate</w>
pre sses</w>
grin ding</w>
dom en</w>
z i</w>
e o</w>
ge e</w>
spla shed</w>
ing es</w>
ght ful</w>
re stri
mu ddy</w>
mi es</w>
head quarters</w>
pe er</w>
2 5</w>
carol yn</w>
mar rying</w>
bang ed</w>
g el</w>
be e
vi vid</w>
m ali
2 4</w>
la yers</w>
valent ine</w>
el ders</w>
sha dow
m our</w>
re id</w>
pow ered</w>
g rea
clin ic</w>
thre sho
fol der</w>
r ory</w>
du mp</w>
apol lo</w>
maj ority</w>
ja pan
ar ming</w>
cigar ettes</w>
chi ck</w>
scienti sts</w>
cho ke</w>
ar ity</w>
go in'</w>
un seen</w>
la bor</w>
l one</w>
pri vile
pi er</w>
bar ry</w>
accep table</w>
inspec tor</w>
2 2</w>
m ick</w>
per formed</w>
bal lo
i van</w>
occa sions</w>
t witch</w>
luci an</w>
jer king</w>
japan ese</w>
thera py</w>
m ill</w>
cha tting</w>
u ps</w>
preci se</w>
main ly</w>
rel ent
po o
be ck</w>
regre tted</w>
susp ended</w>
epi so
ra u
lyn n</w>
gr aceful</w>
ad mire</w>
ta d</w>
fi ghts</w>
ad ri
pu b</w>
ad verti
out line</w>
mag ne
re volu
hy p
pa dded</w>
hy po
ev ie</w>
tow n
su m</w>
qu ali
over heard</w>
ga sps</w>
de dly</w>
min a</w>
kidna pped</w>
ul ted</w>
philo so
di scar
v eil</w>
sandwic h
o live</w>
c row</w>
im pro
c '
lea f</w>
rea pp
frequ ently</w>
me ssen
thresho ld</w>
ga ped</w>
e tt</w>
d ice</w>
br yn
ur gency</w>
p m</w>
en han
ve s
f ounded</w>
u res</w>
lin d
ti ckets</w>
s lit</w>
sm ack</w>
t ying</w>
obe di
a se</w>
messen ger</w>
min ent</w>
lor ds</w>
nur ses</w>
charac ter
princip al</w>
cool er</w>
bun dle</w>
tau t</w>
pre viously</w>
ru s</w>
enjo y
crit ical</w>
pla gue</w>
co pper</w>
plu cked</w>
ken ny</w>
crai g</w>
v ali
electr onic</w>
virgin ia</w>
tow ers</w>
s lan
l ins</w>
mo tor</w>
termin al</w>
ma ze</w>
less ness</w>
sle ek</w>
inter rupt</w>
lu can</w>
de scent</w>
co ke</w>
app et
ali ze</w>
hu ffed</w>
ma ddy</w>
her o
part ners</w>
ri ses</w>
ma e</w>
bli ss</w>
bal anced</w>
wind shield</w>
accoun ts</w>
war ily</w>
sel ected</w>
re e
man ners</w>
for bidden</w>
compas sion</w>
fa u
bu ckled</w>
ti ghten</w>
fa irs</w>
jol t</w>
hun ted</w>
clen ching</w>
w ren</w>
experim ent</w>
disci pl
h l</w>
witne sses</w>
g love</w>
shee pi
lay la</w>
cal vin</w>
tri ps</w>
in o</w>
seat tle</w>
start ling</w>
t ec
gra sping</w>
ver on
s wit
n anny</w>
cal cu
: 00</w>
f east</w>
author ities</w>
con qu
fre ed</w>
swee tly</w>
trans fer</w>
thru sting</w>
pick up</w>
win ston</w>
mor al</w>
lat tered</w>
foun dation</w>
touri sts</w>
n in</w>
mar sha
e ssa</w>
drun ken</w>
si pping</w>
ex posing</w>
en gul
inqu ired</w>
tech ni
vel ing</w>
crow ds</w>
un bear
thro ws</w>
d well</w>
sla pping</w>
tea ms</w>
el ement</w>
. c.</w>
in crease</w>
ch ester</w>
scienti st</w>
jon ah</w>
bu rea
stu res</w>
ri ver
grow ling</w>
ra mp</w>
ne ared</w>
per spective</w>
fi x
n an
go bl
suff icient</w>
sa il
belon gs</w>
un mista
increas ing</w>
tro ll</w>
lac ey</w>
visi bly</w>
dess ert</w>
st es</w>
entertain ment</w>
re lev
st ati
c ere</w>
hil t</w>
om a</w>
loo sened</w>
retor ted</w>
main tained</w>
p acks</w>
extra ordinary</w>
embr aced</w>
o on</w>
communic ate</w>
s col
de sig
sur veyed</w>
cra dled</w>
re ins</w>
pea k</w>
st el
d ine</w>
ru ins</w>
rel ative</w>
indic ation</w>
re spect
cafe teria</w>
wi l</w>
del a
v est
qu il
bang ing</w>
super natural</w>
depar ture</w>
lifel ess</w>
ex tent</w>
success fully</w>
produ ction</w>
c i</w>
greg ory</w>
sa r</w>
fl are</w>
w ick
iri sh</w>
fle e</w>
sin cere</w>
resi dence</w>
ker chief</w>
ir on
f iled</w>
employe e</w>
pat r
interest s</w>
con dom</w>
post ure</w>
re ference</w>
ron an</w>
hil l
dit ch</w>
the a</w>
war ming</w>
bel lowed</w>
lim o</w>
go at</w>
en for
bas ket
destro ying</w>
draw ers</w>
diamon ds</w>
d ingly</w>
passion ate</w>
lu gg
va in</w>
co py
nephe w</w>
gi es</w>
tatto os</w>
stea ming</w>
se dly</w>
is er</w>
flo at</w>
da vis</w>
color ful</w>
ze us</w>
six th</w>
ri cky</w>
re u
chamb ers</w>
re gain</w>
c it
a shes</w>
a pr
franci sco</w>
dar ren</w>
wal k
ear ning</w>
bre ed</w>
advi sed</w>
lugg age</w>
play fully</w>
na th
le tte</w>
eri k</w>
yaw ned</w>
thor n</w>
need les</w>
la mps</w>
ag ging</w>
ta sting</w>
pro tru
wel coming</w>
trans formed</w>
le f
t sy</w>
ca fe</w>
inst ance</w>
gal lo
me sm
trac ing</w>
ob s</w>
be dro
po e
ten nis</w>
wo ol</w>
ba ss</w>
stra ps</w>
respon ding</w>
mar ty</w>
rec e
o my</w>
can di
sau ce</w>
st ac
ca sin
go s</w>
op enly</w>
ma sters</w>
no lan</w>
frea ked</w>
cru ci
control la
proce ed</w>
plan es</w>
fascin ating</w>
car a
d all</w>
co ffin</w>
pro to
dri ves</w>
deep ened</w>
bu st</w>
ati ves</w>
strea ked</w>
mascul ine</w>
in er</w>
dre n
emo tionally</w>
f ing</w>
situ ations</w>
madel ine</w>
re fre
doub led</w>
dist ing
peri meter</w>
fre shly</w>
op y</w>
z ards</w>
ea gle</w>
sel ena</w>
night stand</w>
la me</w>
squ at
le gen
kal adin</w>
un lea
sk ye</w>
shi mmering</w>
hea ving</w>
hau l</w>
hurri edly</w>
for tress</w>
exc ep
deser ves</w>
cat tle</w>
pul sed</w>
pul sing</w>
bab y
wy att</w>
d roo
campa ign</w>
custom er</w>
bar gain</w>
thir sty</w>
ster ling</w>
pir ate</w>
mi kha
im peri
octo ber</w>
flin ch</w>
am i</w>
sick ness</w>
ger ald</w>
b ani
ma x
contain er</w>
occu p
dom s</w>
ic h</w>
rem n
divi ded</w>
hor ns</w>
po tat
ra g</w>
arou sed</w>
tab i
whi mpered</w>
vin es</w>
disgu ise</w>
regi on</w>
lo cal
guar dians</w>
sor s</w>
in i</w>
dru ms</w>
congratul ations</w>
le thal</w>
cre ep</w>
succe ed</w>
sque aled</w>
li sh
terr or
r ina</w>
cur ly</w>
sha w</w>
potat oes</w>
ver ge</w>
di ary</w>
sat in</w>
ol a</w>
f icial</w>
dor m</w>
sp an
so bbed</w>
pu mped</w>
b out</w>
g inger</w>
frank lin</w>
tre men
kno ts</w>
stair well</w>
flir ting</w>
dan i</w>
su bur
pu mp</w>
mo cking</w>
y ank</w>
li l</w>
gigg les</w>
war den</w>
hu shed</w>
ta sha</w>
temp tation</w>
tra ils</w>
hesit antly</w>
sna ps</w>
mikha il</w>
ble ssing</w>
sk ele
assi st</w>
wil li
war dro
di m
v ital</w>
ro s
ren s</w>
sli ps</w>
ar cher</w>
sw elled</w>
g on
sh annon</w>
mesm eri
ent ary</w>
chri sti
basket ball</w>
u no
youn gest</w>
tabi tha</w>
ter ior</w>
je wel</w>
suit able</w>
ti er</w>
eli e</w>
bu gs</w>
it lyn</w>
s lur
dro wn</w>
re ferred</w>
compan ies</w>
tow ering</w>
em an
com posure</w>
ran ks</w>
produ ct</w>
o ven</w>
ja sper</w>
gor i</w>
wil d
per pe
bitter ly</w>
surve ill
archi e</w>
ra il
co pe</w>
surveill ance</w>
a do</w>
sympa thetic</w>
en chan
ex otic</w>
d get</w>
el ves</w>
sna kes</w>
man ny</w>
bla med</w>
ven ture</w>
wee ping</w>
n eal</w>
altern ative</w>
im mun
pur suit</w>
pain ter</w>
heal er</w>
end ure</w>
colu m
mil dly</w>
s ale
ba it</w>
bubb a</w>
oper ations</w>
hand ling</w>
er otic</w>
di gn
gu er
com posed</w>
sti le</w>
ri on</w>
n at</w>
sugge sti
or leans</w>
disp at
descen ding</w>
compla ining</w>
venge ance</w>
tra dition</w>
ser ves</w>
el lit
un controlla
tu mbling</w>
o gra
butt oned</w>
h end</w>
sat ellit
re mark</w>
p and
care ssing</w>
lo v
we ed</w>
s way</w>
whe eled</w>
bea u</w>
tal on</w>
sp ac
ro tten</w>
re verse</w>
stu mble</w>
cont rolling</w>
an ony
outw ard</w>
mir a</w>
sco oted</w>
cra w
har ley</w>
col by</w>
liqu or</w>
excu ses</w>
sy r
vivi an</w>
scho ol
acqua int
va u
ro wan</w>
ja mmed</w>
fri ed</w>
fast ened</w>
van essa</w>
tho m</w>
commerci al</w>
zi o</w>
tw ined</w>
e ted</w>
char ging</w>
in ched</w>
great ly</w>
cont rols</w>
house hold</w>
be ans</w>
bri anna</w>
celebr ation</w>
u ti
tra ge
pp ery</w>
d ab
be have</w>
slow er</w>
he ir</w>
el ements</w>
costu me</w>
sil as</w>
bur sting</w>
purpo ses</w>
var i
ab domen</w>
cri mes</w>
a men
cla wed</w>
supp orted</w>
magaz ines</w>
bar ed</w>
confe ssion</w>
af fairs</w>
hu sh</w>
ang les</w>
par aly
ting ling</w>
an gus</w>
cri sis</w>
su z
sp in
po ker</w>
ing y</w>
cour tney</w>
2 1</w>
glea med</w>
zi pper</w>
soa king</w>
shi elds</w>
gal ax
ra pe</w>
fa ye</w>
har mon
di plo
z ily</w>
triump h</w>
mb o</w>
al armed</w>
ra ven
ben ny</w>
st les</w>
oun ted</w>
lo gue</w>
heavi er</w>
stra w
et ched</w>
g listening</w>
out come</w>
han dy</w>
abu se</w>
man or</w>
er o
c ation</w>
app ly</w>
fin est</w>
tin ess</w>
door bell</w>
ca sca
shu ttle</w>
compar ison</w>
dir k</w>
ti les</w>
show ered</w>
im pulse</w>
4 0</w>
o ed</w>
blank ly</w>
alli ance</w>
ado pted</w>
c ers</w>
am a</w>
ar a
fil ls</w>
un certainty</w>
ru led</w>
luci a</w>
lanter n</w>
ha ley</w>
ag oni
ser en
bit ten</w>
ced es</w>
r aces</w>
gro aning</w>
vi gor
ten s</w>
dist inc
ann ab
s ali
revel ation</w>
room mate</w>
tox ic
temp ting</w>
pil es</w>
hide ous</w>
frow ns</w>
f are
clu bs</w>
tu ck</w>
alex ia</w>
vi sh</w>
ro t
lit ting</w>
lea ping</w>
be half</w>
bl ings</w>
ber ries</w>
sp as
j unk</w>
' l</w>
par lor</w>
v als</w>
u gh</w>
su pre
na vig
juli et</w>
whi stled</w>
veron ica</w>
reu ben</w>
qu an
predic table</w>
exqui site</w>
ade qu
di ssi
conne ctions</w>
astoni shment</w>
accomp lish</w>
la sh</w>
su b</w>
repe ating</w>
pre fer
el u
confli ct</w>
war s</w>
ver i
spr inted</w>
amu sing</w>
tt on</w>
sen tin
some place</w>
admi ral</w>
wa de</w>
lin en</w>
ni ece</w>
ey ela
d r</w>
para dise</w>
lo omed</w>
eyela shes</w>
angui sh</w>
help lessly</w>
¨ c</w>
ch and
sur real</w>
man n</w>
tra itor</w>
mani fe
mil ton</w>
car ly</w>
sta mmered</w>
pay ment</w>
gro ve</w>
rese mbled</w>
bran dy</w>
sy mp
kil lers</w>
swi ped</w>
sugge sting</w>
y way</w>
sha ttering</w>
ed ition</w>
chi e</w>
no elle</w>
la bel
g ross</w>
gre t
p ill</w>
ri sen</w>
redu ced</w>
ly wood</w>
ca th
u mb
in volun
awak ened</w>
indi a</w>
sand ra</w>
no ting</w>
dar ting</w>
wardro be</w>
sarca stically</w>
wil son</w>
ulti mately</w>
li la</w>
le gged</w>
i 'm</w>
tion ist</w>
g ang
ir y</w>
de pressed</w>
micro phone</w>
ar ts</w>
demean or</w>
wi g</w>
glin t</w>
du sk</w>
thu mb
ka de</w>
increas ingly</w>
stal king</w>
cu pping</w>
publi shed</w>
suc cu
spee ch
re view</w>
recor ded</w>
mat ically</w>
far mer</w>
spla sh</w>
s lack</w>
ici ans</w>
ma the
/ /</w>
sne ered</w>
encoura g
sig nature</w>
cont acts</w>
p iti
mar sh</w>
le ton</w>
con ner</w>
to oth</w>
spect acu
puni shed</w>
1 9</w>
ti ly</w>
rea der</w>
obe yed</w>
mil lie</w>
super vi
sep tem
scal p</w>
sk ies</w>
fu zzy</w>
ea u</w>
confu sing</w>
col ton</w>
re solved</w>
part ments</w>
pun ching</w>
sw ings</w>
experien ces</w>
back up</w>
h ound</w>
al a</w>
septem ber</w>
coo kie</w>
con vul
nor man</w>
qui vering</w>
mon key</w>
in form</w>
identi fied</w>
glea m</w>
wra ps</w>
th ia</w>
suspici ons</w>
tan ned</w>
gloo m</w>
st eri
accep tance</w>
man s</w>
bracel et</w>
20 0
hu l
st ations</w>
i le</w>
suppo sedly</w>
anch or</w>
sel s</w>
ra v
aggre ssive</w>
snu ck</w>
enti ally</w>
u d</w>
be ver
vo y
mar i</w>
cli p</w>
si blings</w>
ez ra</w>
pa m</w>
murmur s</w>
confe ss</w>
ne stled</w>
mo b</w>
det ected</w>
dread ful</w>
sha wn</w>
ra dar</w>
lo ck
b ited</w>
b ers</w>
play ful</w>
hu dson</w>
afri ca</w>
mo del
hand kerchief</w>
tu cking</w>
bla ze</w>
hesit ant</w>
wh ee
ar ray</w>
tow ns</w>
pe pper</w>
mo ans</w>
i um</w>
di ver
your selves</w>
cap tive</w>
scenari o</w>
so ever</w>
feder al</w>
carol ina</w>
scienti fic</w>
depen ding</w>
o ath</w>
mit ted</w>
deca de</w>
spir itual</w>
re ese</w>
neu tral</w>
re hear
e be</w>
str an
mari ssa</w>
ghten s</w>
do x</w>
con j
repor ters</w>
commit ment</w>
j ee
discar ded</w>
cap it
apr on</w>
shri ek</w>
co ated</w>
appreci ation</w>
di mly</w>
chap el</w>
sp l
an ti</w>
pe ts</w>
tu ous</w>
ev elyn</w>
cou ples</w>
pri ck</w>
rescu ed</w>
pat ting</w>
cla ir</w>
desi res</w>
ea sing</w>
h tt
emp tied</w>
achi eve</w>
le xie</w>
interrup ting</w>
ging erly</w>
a ster
li mb</w>
ty ped</w>
ob servation</w>
cal ming</w>
sho cking</w>
r r
apologi zed</w>
ac tor</w>
- --</w>
sit es</w>
ab bey</w>
th ly</w>
bar king</w>
va mp</w>
whi t
nau sea</w>
me ssing</w>
ha yden</w>
chec ks</w>
appet ite</w>
t cher</w>
fea ther</w>
moist ure</w>
col dly</w>
mi sh</w>
isol ated</w>
gener ations</w>
ev o
snor t</w>
sa ble</w>
har old</w>
gun ner</w>
dea f
ch unk</w>
4 5</w>
mu ted</w>
comm it</w>
robo ts</w>
ga zes</w>
flu ttering</w>
kil ls</w>
bu sted</w>
grim ace</w>
y in</w>
shu ffling</w>
ribb on</w>
ha ting</w>
be ef</w>
unexp ec
fig uring</w>
co her
so lar</w>
distri bu
ar ena</w>
o u</w>
un doub
wi res</w>
r acks</w>
relev ant</w>
custo dy</w>
cap acity</w>
ecst asy</w>
our ing</w>
fr action</w>
cru ise</w>
un ner
mer cedes</w>
stri des</w>
boul der</w>
scar lett</w>
gul p</w>
undoub tedly</w>
band age</w>
gran ite</w>
betra y</w>
ni shed</w>
m ound</w>
ca ves</w>
sub stan
glu ed</w>
g ings</w>
bo iling</w>
puni sh</w>
bur sts</w>
b ony</w>
perman ently</w>
lo la</w>
di zz
a iming</w>
tran sm
1 00</w>
u ary</w>
esc al
ro sie</w>
re signed</w>
shud dering</w>
concentr ating</w>
ch eri
chec k
gro ws</w>
ri der</w>
vege tables</w>
relati ves</w>
mi ss
ber nard</w>
pand ora</w>
fi e</w>
scar red</w>
geor gia</w>
vom it</w>
v ated</w>
snar l</w>
astoni shed</w>
expl or
announ cement</w>
cal e</w>
p aces</w>
gre gori</w>
vac ant</w>
oper ating</w>
me ta
up wards</w>
to wels</w>
lau rel</w>
danc er</w>
b .</w>
pu p
bron ze</w>
ru mor</w>
py ra
ow ners</w>
indepen dent</w>
di vision</w>
shar on</w>
poli cy</w>
how led</w>
con taining</w>
clu es</w>
prin ci
fer gus</w>
com partment</w>
spo o
expl oring</w>
blu shing</w>
bewil dered</w>
sen ds</w>
pa ige</w>
mu tual</w>
g ha
cand ace</w>
tor ment</w>
di c</w>
trans ferred</w>
spo iled</w>
cour t
a mp
flat ly</w>
bu ck
fi ghters</w>
har ris</w>
fa thers</w>
chi r
spea kers</w>
ador able</w>
sandwich es</w>
noti c
person nel</w>
ca pe</w>
19 8
speech less</w>
cha tter</w>
bou ts</w>
sha ved</w>
on ably</w>
mu tter</w>
la ss</w>
ar c</w>
lo re
do yle</w>
commit tee</w>
sa i
re ll</w>
recor ding</w>
ran dy</w>
scen es</w>
shado wed</w>
par ting</w>
ron nie</w>
in toxic
scar cely</w>
co t</w>
conveni ence</w>
comman ds</w>
bor row</w>
che ating</w>
m ick
w .
agit ated</w>
ja y
cin dy</w>
batt les</w>
defin ed</w>
dd ened</w>
the l</w>
sa gged</w>
pup ils</w>
con dem
harm less</w>
t ac
har vey</w>
c un
ba dge</w>
flo pped</w>
de parted</w>
a val
iv ory</w>
what soever</w>
prophec y</w>
pa ired</w>
di p</w>
ca f
spr ings</w>
bat tery</w>
re commen
deb ate</w>
classi c</w>
ro tting</w>
how l</w>
ha iley</w>
unexpec tedly</w>
mechan ical</w>
er r
at tic</w>
hop eless</w>
ste al
coun try
quick er</w>
ra ked</w>
fle xed</w>
sw elling</w>
un willing</w>
exasper ated</w>
jewel s</w>
hol lywood</w>
shadow y</w>
gret chen</w>
w ears</w>
ss ell</w>
sa s</w>
docu ment</w>
compre hend</w>
c' mon</w>
import antly</w>
fl ynn</w>
tri gg
gli ded</w>
sk ul
indic ate</w>
z el
scra ping</w>
lor i</w>
do dge</w>
ou ting</w>
reas sure</w>
pri ests</w>
ken dall</w>
ab du
ben ja
tex ted</w>
mack enzie</w>
ysi s</w>
ti an</w>
is lands</w>
be dded</w>
provi ding</w>
under world</w>
kay la</w>
courte sy</w>
sa iling</w>
musc led</w>
c any
twit ching</w>
twi light</w>
ju mps</w>
sh ort
coun tries</w>
immen se</w>
la in</w>
propo sal</w>
pho ebe</w>
eless ly</w>
appro ve</w>
an g</w>
visit s</w>
po tent</w>
electri cal</w>
re gained</w>
sing er</w>
nic olas</w>
na y</w>
smo l
ra ble</w>
mor ris</w>
gra m</w>
re y
ble ed</w>
po l</w>
how ling</w>
a vi
st atic</w>
cli cking</w>
parano id</w>
com motion</w>
snu ggled</w>
survi vors</w>
e tta</w>
cau ses</w>
lur king</w>
hyp noti
unbeliev able</w>
ta vern</w>
trage dy</w>
sub jects</w>
ab rupt</w>
stu pi
pat ches</w>
clar k</w>
tun ic</w>
whi te
neg le
im press</w>
com pul
ben nett</w>
mat ches</w>
lit tered</w>
al ysis</w>
desig ner</w>
ss on</w>
fi xing</w>
fle tcher</w>
do se</w>
st acy</w>
pa thy</w>
mu ster</w>
smash words</w>
bor ne</w>
la ser</w>
st ering</w>
re mor
n as
manag ing</w>
sk it
im per
forgi veness</w>
inten si
sub stance</w>
invol ve</w>
annab elle</w>
wa l</w>
mea sured</w>
ser ver</w>
sche me</w>
disor i
phi li
corp ses</w>
ball room</w>
admir ing</w>
bru ise</w>
fo li
cre ative</w>
p al</w>
im it
ka thy</w>
hel ena</w>
butter flies</w>
peri o
p ag
i deal</w>
benja min</w>
pou ch</w>
app lic
2 3</w>
jan uary</w>
war ded</w>
sole m
flat tened</w>
conne cting</w>
barbar a</w>
t fully</w>
lo ve
er son</w>
beauti fully</w>
zach ary</w>
cra mped</w>
sen sations</w>
la h</w>
broo ks</w>
yan king</w>
na pe</w>
wor m</w>
b rai
gro in</w>
unmista kable</w>
ri char
hu mmed</w>
dev ices</w>
consider able</w>
stan dar
strea med</w>
plac ement</w>
tempor arily</w>
marsha l</w>
el end</w>
ac id</w>
atten ding</w>
spark led</w>
i ster</w>
bear s</w>
ro ad
ma bly</w>
corpor ate</w>
squ i
nov ember</w>
dar t</w>
spr ink
com e
au str
glor ia</w>
policem an</w>
cra ved</w>
com ra
the e</w>
b af
mar tha</w>
casin o</w>
won ders</w>
meth od</w>
gw en
disc er
si ghts</w>
sk illed</w>
asse mbled</w>
colle cting</w>
to s</w>
bro ck</w>
rob bie</w>
rit a</w>
law rence</w>
sp len
convic tion</w>
od or</w>
econ om
corri dors</w>
copy right</w>
ru ssell</w>
regu larly</w>
vik tor</w>
ha y</w>
lip stick</w>
bar t</w>
ti cked</w>
sk epti
hear s</w>
em an</w>
ten ts</w>
bath ed</w>
a waiting</w>
tre s</w>
surpri ses</w>
strea k</w>
si re</w>
applau se</w>
lou ise</w>
ca ine</w>
sc run
mar s</w>
dis may</w>
chi med</w>
shi p
suppor ting</w>
col leagues</w>
medi um</w>
jai me</w>
de cem
chi lly</w>
ta mmy</w>
ri ppled</w>
presu mably</w>
pon dered</w>
ch ron
at a</w>
gor don</w>
b ane</w>
ste w</w>
si rens</w>
ra h</w>
pri ority</w>
stri c
k ra
w ry</w>
hu ll</w>
gi o</w>
ka i</w>
gg les</w>
f ty</w>
stea k</w>
flu tter</w>
st il</w>
con front</w>
nath ani
til t</w>
shel by</w>
po p
har shly</w>
o v</w>
guar ding</w>
unbear able</w>
ac company</w>
omin ous</w>
mb ered</w>
ru ler</w>
el ep
den ying</w>
make shift</w>
in ar</w>
w ept</w>
thro bbed</w>
pe e</w>
itu tion</w>
in fli
a sha</w>
po ster</w>
pla stered</w>
hon ored</w>
concer t</w>
sophi stic
i dly</w>
bur ger</w>
pan ted</w>
grand parents</w>
ten derly</w>
har med</w>
comman ding</w>
p ent</w>
angel o</w>
suf fo
si enna</w>
dis da
chor us</w>
b ates</w>
n el
p raise</w>
p aci
vo wed</w>
li shment</w>
pri mary</w>
back side</w>
re ar
po sted</w>
wri thing</w>
momen tum</w>
encoura ging</w>
en ting</w>
decem ber</w>
whi pping</w>
threat en</w>
uni forms</w>
stiff ly</w>
ca mil
ge stures</w>
pro ced
chuck ling</w>
shi re</w>
sand als</w>
ann i</w>
gre na
mar ching</w>
ab ack</w>
wren ched</w>
vo ted</w>
mech ani
less er</w>
crea ked</w>
si ren</w>
pa ws</w>
mirr ors</w>
ru mbling</w>
re bel</w>
fun d</w>
recep tionist</w>
episo de</w>
sen sible</w>
a mara</w>
sal es</w>
ten tati
fi dge
pleasan tly</w>
bul ous</w>
wi ggled</w>
dren ched</w>
mischi ev
li ghted</w>
war mly</w>
body guard</w>
jo gged</w>
ma ster
bra dley</w>
be ta</w>
hi ssing</w>
di so
appe aling</w>
chil led</w>
be tty</w>
pre mi
pir ates</w>
pur sue</w>
fear ful</w>
den ise</w>
contr ary</w>
per si
ch ers</w>
ta stes</w>
spectacu lar</w>
poin tless</w>
che ered</w>
bor rowed</w>
teenag ers</w>
fli cking</w>
depre ssion</w>
box ers</w>
summ on</w>
blin dly</w>
an ita</w>
w ns</w>
den ny</w>
win k
ph ine</w>
ven tured</w>
tentati vely</w>
sm eared</w>
cup board</w>
ci gar</w>
t led</w>
scul p
per ple
hy per
id ance</w>
har dest</w>
bar on</w>
par ade</w>
f ever
tur key</w>
do t</w>
reco very</w>
k .</w>
i ris</w>
bri ghtened</w>
qu in</w>
on ally</w>
lat ch</w>
near er</w>
fran kie</w>
de me
clen ch</w>
cheer fully</w>
standar ds</w>
re sts</w>
anti que</w>
ton gues</w>
dev i
col ony</w>
y ar
sl acks</w>
pp er
instru ment</w>
blin ded</w>
po ised</w>
individu als</w>
ho stile</w>
co l</w>
interf ere</w>
fai thful</w>
mper ing</w>
al len</w>
hen ri</w>
rever end</w>
consu ming</w>
trac es</w>
ey ard</w>
danger ously</w>
a ds</w>
thu mping</w>
nu clear</w>
di mini
bren nan</w>
gar den
squir med</w>
ti cal</w>
ob serve</w>
h s</w>
bren da</w>
hur led</w>
ba thing</w>
reas sured</w>
occu r</w>
mo le
gree dy</w>
til ting</w>
bul k</w>
ting le</w>
stab les</w>
la i</w>
e zio</w>
st ful</w>
inva sion</w>
hol der</w>
ancest ors</w>
smal lest</w>
mi ri
strang led</w>
con test</w>
tar gets</w>
ex terior</w>
emp tiness</w>
wen dy</w>
bu ckle</w>
admir ation</w>
c annon</w>
shar ds</w>
obse ssed</w>
hu gs</w>
pro cee
ph en
mo dest</w>
il ah</w>
ack ers</w>
hur rying</w>
can opy</w>
al tered</w>
sof ter</w>
pe an
manag ement</w>
c elia</w>
mo ss</w>
cont acted</w>
tremen dous</w>
bl unt</w>
sco tch</w>
gla dly</w>
col lar
st inging</w>
scre ens</w>
comple x
appro ved</w>
re jected</w>
tom b</w>
scree ched</w>
scal es</w>
butter fly</w>
hear ted</w>
mur ders</w>
stor ms</w>
it aly</w>
fla ming</w>
absur d</w>
sun rise</w>
min d
inqui sit
ma ss
app ren
hoo ded</w>
to pped</w>
spo t
dign ity</w>
acqu ired</w>
sp ared</w>
po ps</w>
ww w.
ris ked</w>
stron gest</w>
reck on</w>
c ling</w>
seduc tive</w>
v lad</w>
roy ce</w>
bl end</w>
uni ver
do s</w>
da wned</w>
over sized</w>
wi dow</w>
si er</w>
19 9
ex pe
ab sent</w>
twenti es</w>
mo re
cheek bones</w>
le x</w>
co cky</w>
ba ked</w>
it im
expan se</w>
t ear
sea s</w>
ho tter</w>
bo iled</w>
lon gest</w>
wee ds</w>
seven th</w>
fuck in</w>
de posit
del ilah</w>
di e
d ill
sear ing</w>
ni ko
poli sh</w>
clar a</w>
belon gings</w>
scho ols</w>
ir ony</w>
cat a
remn ants</w>
kic ks</w>
g ely</w>
manu fac
sa iled</w>
symbo ls</w>
ratt ling</w>
pan g</w>
l acked</w>
gl as</w>
issu ed</w>
swa mp</w>
presen ts</w>
g ard</w>
den ial</w>
stri ct</w>
adju sting</w>
smo ked</w>
sla shed</w>
tho u</w>
pu ssy</w>
opti mi
h mmm</w>
cla yton</w>
lo oming</w>
bb ery</w>
satis fy</w>
trou bles</w>
vac u
op en
p ear
men acing</w>
un natural</w>
co sts</w>
bea ds</w>
i zing</w>
un its</w>
y na</w>
musi cal</w>
mor tality</w>
leg itim
19 7
in tu
emer ge</w>
bea ming</w>
rif les</w>
mea dow</w>
g ate
bu bbles</w>
stri kes</w>
shar k</w>
proced ure</w>
newspa pers</w>
bun k</w>
ba sha</w>
t ack</w>
ren ted</w>
her oes</w>
effec tively</w>
dou glas</w>
b ree</w>
ra ined</w>
tre ach
sa mple</w>
gradu ate</w>
cer ti
tr ance</w>
scra p</w>
tt i</w>
hal luc
d ger</w>
in fer
galax y</w>
c ec
stu bble</w>
ple a</w>
bedro oms</w>
inter jected</w>
smo o
devel op</w>
ush ered</w>
la yne</w>
ka itlyn</w>
con ci
lou ie</w>
bol ts</w>
con rad</w>
er ror</w>
eng age</w>
au th
sign aled</w>
angel es</w>
san nah</w>
ho meless</w>
shel ls</w>
har dy</w>
clu tch</w>
un necessary</w>
gun fire</w>
fe ig
co co
inspec tion</w>
bry an</w>
ba ker</w>
differ ences</w>
da mp
cr ink
a waited</w>
k ingly</w>
bi kin
a w</w>
p ins</w>
mou thful</w>
fac tor</w>
pron ounced</w>
ex tr
distur b</w>
car d
to w</w>
t ingly</w>
em ed</w>
ter en</w>
black ened</w>
har rison</w>
gro ans</w>
dedic ated</w>
consider ation</w>
rel la</w>
ou ch</w>
g emma</w>
di et</w>
vir tually</w>
ob st
o cu
pee king</w>
hosp it
con gre
a spect</w>
tal ented</w>
tal ents</w>
ev al</w>
end ured</w>
amb assa
alex is</w>
0 0
tran spar
re presented</w>
fas c
dee pest</w>
re strained</w>
mon a</w>
ren tal</w>
disp lea
squ inting</w>
ei ve</w>
volunte ered</w>
ur ging</w>
stro m</w>
kar l</w>
celest e</w>
boar ding</w>
ali sm</w>
o ci
m ace</w>
co pies</w>
bla zed</w>
good night</w>
fasc ination</w>
br un
sk inned</w>
constru cted</w>
acknowle dg
tor ches</w>
th fully</w>
inse cts</w>
disapp earance</w>
vibr ated</w>
ho lo
daw son</w>
thank s
plu mp</w>
pa d
reali se</w>
fac ial</w>
r .</w>
por k</w>
over looking</w>
e ma
re vi
vo d
sti fled</w>
elli s</w>
sk e
un fair</w>
ru m</w>
inspir ed</w>
thu mped</w>
ri vers</w>
apologi es</w>
su sannah</w>
pi pes</w>
slo ane</w>
pu ddle</w>
wor ship</w>
under stand
s ks</w>
or able</w>
deaf ening</w>
communic ations</w>
st ee
jol ted</w>
bitter ness</w>
zi p</w>
p om
du mb
satellit e</w>
cl int</w>
con cu
scri p
ga g</w>
g gi
dra ws</w>
mexic an</w>
do tted</w>
sa b
ne ys</w>
fo am</w>
by ron</w>
wel led</w>
solem nly</w>
plain ly</w>
confron tation</w>
st ine</w>
busin ess
blin d
pro ving</w>
la bel</w>
dan ts</w>
sarca stic</w>
ra ining</w>
ki lo
br o</w>
deta iled</w>
p inning</w>
gr an</w>
do in'</w>
waist band</w>
ja zz</w>
ici ently</w>
ro sa</w>
instru ments</w>
han gs</w>
contemp t</w>
pha se</w>
nau ghty</w>
fu cker</w>
en vy</w>
tro tted</w>
spor ting</w>
l ure</w>
ch et</w>
gene tic</w>
blos som
refle cting</w>
d die</w>
atten dant</w>
mer ged</w>
survi ving</w>
der i
stre wn</w>
sc rubbed</w>
lux uri
tt in</w>
sp itting</w>
har ri
flo wn</w>
ten ing</w>
s by</w>
ri ders</w>
ko ta</w>
cany on</w>
ab s</w>
mil li
exi sts</w>
cry p
plan ets</w>
ja m</w>
fun ds</w>
ro cket</w>
bur ying</w>
thanks giving</w>
ro s</w>
pi st</w>
exten ding</w>
sof tness</w>
sky la</w>
liber ty</w>
al lies</w>
clau dia</w>
ec k</w>
pre dat
plo pped</w>
eva por
is ra
imperi al</w>
gradu ated</w>
shoo ts</w>
che ers</w>
el iness</w>
z u
sul li
indu stry</w>
argu ments</w>
expec tations</w>
b ank
m ated</w>
humili ation</w>
citi zen</w>
wheel chair</w>
r ation
chur ning</w>
ly ssa</w>
cock pit</w>
ro e</w>
rever ber
dr on</w>
c ac
cath oli
am id</w>
ra sped</w>
prot est
ma ps</w>
fore arms</w>
satis fying</w>
rea per</w>
o me</w>
encou rage</w>
un folded</w>
wr yly</w>
walk way</w>
or phan
di ving</w>
cro sses</w>
y up</w>
vod ka</w>
pra yers</w>
ow ns</w>
o scar</w>
la shed</w>
comp en
sole mn</w>
de sign
ali son</w>
se vered</w>
un spoken</w>
challeng ing</w>
v as
gl en
1 7
ev ans</w>
expre ssed</w>
in furi
a .
sa pp
vo w</w>
bre tt</w>
confron ted</w>
bin ding</w>
nar rowing</w>
key board</w>
gr acefully</w>
whi mper</w>
sc ents</w>
persu ade</w>
swee tness</w>
mar tin
ri dden</w>
p or</w>
cen tly</w>
impati ence</w>
fren zy</w>
en elle</w>
do dged</w>
ta x</w>
war mer</w>
pl ying</w>
w ny</w>
attr act</w>
im pul
glo be</w>
aly ssa</w>
pro secu
materi als</w>
dill on</w>
rese mblance</w>
w illed</w>
sale m</w>
boun ce</w>
squea ked</w>
ir onic</w>
con do</w>
y the</w>
serv ations</w>
pi a</w>
: 30</w>
lo ft</w>
exagger ated</w>
sh eath</w>
nur sing</w>
li za</w>
chem ical</w>
r ated</w>
pro jec
da ph
ru bble</w>
wh ined</w>
contra dic
sli ppery</w>
practi cing</w>
fa bulous</w>
bru shes</w>
bom bs</w>
portra it</w>
war rant</w>
strai ghtening</w>
re son
ja enelle</w>
dissi p
daph ne</w>
confir mation</w>
foo ls</w>
deliber ate</w>
scra mbling</w>
ni pples</w>
ka r</w>
dev oted</w>
thir st</w>
gui ding</w>
p ean</w>
eff icient</w>
bro ok</w>
dra wled</w>
chemi stry</w>
pre d
immun e</w>
den cy</w>
country side</w>
bra kes</w>
bar e
wa its</w>
bud dies</w>
a j</w>
h n</w>
tex ts</w>
ka th
pro fit</w>
pa w</w>
kno tted</w>
wa vering</w>
pu ffed</w>
floo ding</w>
defin ite</w>
paja mas</w>
i sing</w>
u ous</w>
char i
bi dding</w>
re en</w>
ming led</w>
in sanity</w>
sulli van</w>
di ous</w>
appro xim
dra matically</w>
b ounded</w>
g om
ur s</w>
ro th</w>
ri gh
po sts</w>
ag enda</w>
pack et</w>
restaur ants</w>
gar ath</w>
bu n</w>
bri sk
sp aces</w>
resi dents</w>
blu e
spl inter
f ers</w>
enter taining</w>
civili zation</w>
wi zards</w>
ki ly</w>
gu m</w>
gra yson</w>
fle eting</w>
fati gue</w>
inti macy</w>
spee ding</w>
or dering</w>
fe wer</w>
sig ning</w>
estim ated</w>
ca the
sweat shirt</w>
ki sh</w>
ho ar
bo wing</w>
squea k</w>
sp an</w>
lon eliness</w>
franc is</w>
cou l
gla zed</w>
sni ffing</w>
colum ns</w>
sel dom</w>
comp elled</w>
b less</w>
wea ving</w>
ru e
ris ks</w>
o id</w>
ne s
det ect</w>
br ina</w>
ve in</w>
htt p</w>
el ope</w>
custo m</w>
vers ary</w>
card board</w>
mu te</w>
ar oma</w>
col lins</w>
ri o</w>
ma dam</w>
bul ging</w>
initi ally</w>
ch ef</w>
sco tland</w>
bi scu
scre wing</w>
mb er
lat ched</w>
web site</w>
w ick</w>
hear th</w>
bu tch</w>
bel garath</w>
kir an</w>
experien cing</w>
dri ll</w>
ar ching</w>
w i</w>
be ers</w>
scur ried</w>
rear view</w>
co zy</w>
v ance</w>
chi ck
t s
deci des</w>
stri cken</w>
se er</w>
gre asy</w>
k an</w>
te ens</w>
cl are</w>
ra ped</w>
kenne dy</w>
cor rup
thru sts</w>
qui vered</w>
ma inten
ha ste</w>
bi c</w>
and re</w>
car ries</w>
s have</w>
re sur
har ness</w>
pred ator</w>
lun a</w>
bra m</w>
w rec
br yn</w>
ru stling</w>
out si
stab bing</w>
infec tion</w>
mo ses</w>
fal tered</w>
wor thless</w>
re gan</w>
fanta sies</w>
o logy</w>
every day</w>
pro jects</w>
ev ie
t its</w>
stubb or
pe ter
conc eal</w>
ra e</w>
man ic
ea bouts</w>
en li
sp ic
w er
k le
arti ficial</w>
wa g
suppre ssed</w>
cal li
spi ral</w>
com b</w>
sil ver
luci var</w>
gi gan
clu ster</w>
be ep
o tt</w>
jer sey</w>
cushi on</w>
associ ated</w>
wid ening</w>
pu rely</w>
ho g
emer son</w>
con or</w>
clu msy</w>
hyster ical</w>
hh h</w>
cur ses</w>
no l
ic t</w>
le to</w>
bac hel
wink ler</w>
st acks</w>
lou isa</w>
er ra</w>
war lord</w>
euro pean</w>
cal en
ag nes</w>
j inn</w>
do om</w>
wi den</w>
passa ge
fel lows</w>
il lian</w>
wear ily</w>
i ko</w>
cushi ons</w>
el ite</w>
mer chan
as ser
vi sual</w>
po or
shru gging</w>
l acy</w>
expen se</w>
mi r</w>
el vis</w>
poe try</w>
cap ti
shri ll</w>
war t</w>
to l
mee ts</w>
radi ated</w>
e sses</w>
sha y</w>
exasper ation</w>
dag gers</w>
sni ff</w>
ra bb
ex pose</w>
bu dge</w>
pe tty</w>
in der</w>
angel ica</w>
se ctions</w>
val ry</w>
pr o</w>
do omed</w>
revolu tion</w>
bro dy</w>
' n</w>
sp ears</w>
ui shed</w>
jud ged</w>
wr ought</w>
my th</w>
interrog ation</w>
so lo
i ss
gradu ation</w>
c ani
tab let</w>
local s</w>
cre ased</w>
sa die</w>
li ds</w>
ou tta</w>
cru de</w>
lo an</w>
joy ah</w>
concer ning</w>
sincer ely</w>
flu ffy</w>
angel ina</w>
par alle
nick name</w>
ear nest</w>
sw er
pers ons</w>
paralle l</w>
beck oned</w>
po ts</w>
touri st</w>
gigan tic</w>
unti e</w>
stal ker</w>
explo ding</w>
st illness</w>
sim one</w>
reck less</w>
grow ls</w>
att acker</w>
ster nly</w>
le m</w>
di ane</w>
s laughter</w>
pl ing</w>
mo th</w>
co iled</w>
vibr ating</w>
t .</w>
sm s</w>
cor in
win ce</w>
ha zy</w>
fol lowers</w>
christ ine</w>
expec tantly</w>
inten sely</w>
door knob</w>
gu ing</w>
fle eing</w>
fu ss</w>
va ult</w>
tri ckle</w>
ter rain</w>
st ink</w>
intru der</w>
encourag ement</w>
at y</w>
reas oning</w>
defen ses</w>
cr on
comp are</w>
mer ri
st ale</w>
intimid ating</w>
crimin als</w>
pro found</w>
p led</w>
mo de
phen om
glo ssy</w>
stre et
19 6
rat tle</w>
sin ister</w>
miri am</w>
di d
re treating</w>
r ing
t asks</w>
val ent</w>
stri ding</w>
sh h</w>
gh n</w>
ca ps</w>
or b</w>
ton ed</w>
ca d
ru thless</w>
a stic</w>
ur gently</w>
mainten ance</w>
lit h</w>
sooth ed</w>
re ha
preven ted</w>
per sist
j in</w>
ten derness</w>
stric tly</w>
ter esa</w>
car eless</w>
skim med</w>
tu bes</w>
prepar ation</w>
cock tail</w>
tab le
sign als</w>
festi val</w>
ni es</w>
nel son</w>
cy lin
ad mission</w>
oper a</w>
oun d
bri cks</w>
ri chie</w>
ho i
rain bow</w>
posse ssive</w>
ser ial</w>
fare well</w>
vibr ant</w>
ma il
dri vers</w>
th ing
p ry</w>
dra ft</w>
weak ened</w>
de sc
trans formation</w>
fla p</w>
du chess</w>
mi l</w>
histor ical</w>
fan g</w>
oo m</w>
dig ital</w>
ash ton</w>
sub du
re ece</w>
t u</w>
re de
philoso phy</w>
br ace</w>
archi tec
execu tive</w>
.. ...</w>
gui ld</w>
frequ ent</w>
w en</w>
ur al</w>
ev alu
pro posed</w>
dic ally</w>
bo bbed</w>
transpar ent</w>
stur dy</w>
reli able</w>
loo sely</w>
in ward</w>
h inges</w>
contempl ated</w>
luc inda</w>
ger many</w>
f le</w>
vamp s</w>
tri c</w>
che ated</w>
sophistic ated</w>
soo the</w>
cha ined</w>
past or</w>
inter ven
coun ters</w>
ex ting
brisk ly</w>
hi lar
sail ors</w>
me ster</w>
under stands</w>
fat al</w>
y ach
vau ghn</w>
scra pe</w>
ri b</w>
rand all</w>
no isy</w>
cal f</w>
1 2
po ols</w>
t ches</w>
admit ting</w>
wel ls</w>
inter c
ign ition</w>
gu idance</w>
de mi
cru mbling</w>
w and</w>
cru iser</w>
ti ous</w>
sco wling</w>
mir ac
f ter</w>
syl via</w>
seep ed</w>
pro mo
str ung</w>
k re
fer al</w>
re pri
ne on</w>
mini mum</w>
per forming</w>
run ner</w>
ren e</w>
ra ft</w>
thor ough</w>
out right</w>
mini ature</w>
li zed</w>
coun ts</w>
t our
high ness</w>
her e
dr ying</w>
vi le</w>
thi eves</w>
ac ce
ru ffled</w>
pro m</w>
ar mies</w>
gru ff</w>
execu ted</w>
tt led</w>
terror ist</w>
righ te
salu te</w>
no thin'</w>
medic ation</w>
inher ited</w>
glit tered</w>
mm ers</w>
k la
character i
bil lion</w>
un touched</w>
tr unks</w>
mer cen
c ated</w>
o o</w>
lu ca</w>
ha bits</w>
delic ately</w>
cr ates</w>
bo o</w>
volunte er</w>
mar guer
in wardly</w>
hal low
dro p
ken ds</w>
cla pping</w>
foo ting</w>
car rot</w>
tan ks</w>
smar ter</w>
pet ite</w>
kno x</w>
den ver</w>
consi sted</w>
envel oped</w>
clou ded</w>
offici als</w>
ter ies</w>
ten dri
ad ele</w>
sta ins</w>
pa ds</w>
or nate</w>
marguer ite</w>
evie ve</w>
mo tive</w>
ju dy</w>
apologe tic</w>
affec tion
li bby</w>
arrog ance</w>
anony mous</w>
bikin i</w>
accu sation</w>
tri m</w>
w yn</w>
mer cer</w>
dun geon</w>
win cing</w>
tri ckled</w>
shir ley</w>
man kind</w>
gen evieve</w>
force fully</w>
tra gic</w>
po ta
remor se</w>
fr ac
fav our
reco vering</w>
bru nette</w>
colle ctive</w>
engul fed</w>
distr acting</w>
ven der</w>
sp litting</w>
boar ded</w>
adequ ate</w>
th at
pre occupied</w>
hol ster</w>
grac ie</w>
foo led</w>
sil very</w>
sel le</w>
re t</w>
prim itive</w>
ex cused</w>
necess ity</w>
ev enly</w>
re t
po o</w>
benef its</w>
wid ely</w>
for given</w>
che w</w>
bl at
le mon</w>
er n
em bro
v ings</w>
tri o</w>
qui ver</w>
pe eling</w>
inf ant</w>
hei ghts</w>
pro xim
men tor</w>
ha ts</w>
chil dish</w>
strai ghten</w>
qua ke</w>
de ed</w>
arti cles</w>
toler ate</w>
a ms</w>
re actions</w>
pe yton</w>
cre st</w>
chel sea</w>
a h
wa ger</w>
mal l
lat or</w>
dis gui
co y</w>
ri cs</w>
t rol
ha mmering</w>
def ending</w>
tion ary</w>
hair y</w>
ex u
shi tty</w>
pen elope</w>
wor shi
lo dged</w>
an ton</w>
poin tedly</w>
ob serving</w>
sli cing</w>
substan tial</w>
ess ential</w>
bal led</w>
ste ele</w>
ti ckled</w>
pyra mid</w>
me tres</w>
maneu ver</w>
con serv
lea sh</w>
i v</w>
fla g
co ven</w>
water fall</w>
un ra
lo u</w>
ni fied</w>
lu min
ja vier</w>
imagin ary</w>
crack ling</w>
ambassa dor</w>
kn it</w>
gli ding</w>
col der</w>
statu es</w>
pu ff</w>
hi tched</w>
ha ss
fi sted</w>
a mos</w>
wo ven</w>
un ease</w>
sher ry</w>
im prove</w>
dang led</w>
a e
pil lar</w>
min t</w>
life style</w>
wre stling</w>
po em</w>
mor nings</w>
er ase</w>
mi gr
emplo yed</w>
mar vel
crack led</w>
la zily</w>
bic eps</w>
fra ser</w>
assass ins</w>
v on</w>
obli ged</w>
dest ined</w>
re stored</w>
sil enced</w>
hol t</w>
func ti
lion aire</w>
horri bly</w>
bla h</w>
honey moon</w>
sky lar</w>
court room</w>
af fir
cabin ets</w>
tom a
po ke</w>
pa ins</w>
ner ship</w>
lo gs</w>
ignor ance</w>
ri sky</w>
dow ned</w>
coher ent</w>
house keeper</w>
stro ll</w>
flu stered</w>
la ir</w>
z able</w>
van tage</w>
rema inder</w>
do cks</w>
c l</w>
any how</w>
ren a</w>
pen is</w>
g no
champ ion</w>
a qu
disapp ears</w>
wy l</w>
loy d</w>
li v</w>
la vender</w>
g len</w>
ph ed</w>
na ive</w>
en closed</w>
relent less</w>
i en</w>
guaran te
c ating</w>
l acking</w>
ti cking</w>
she ila</w>
strea ms</w>
signific ance</w>
sp lin
ky rian</w>
ignor ant</w>
t lessly</w>
fla w
y p
o s
depen ded</w>
smo ky</w>
dis solved</w>
rene wed</w>
o la
un noticed</w>
obse ssion</w>
ck ey</w>
f i</w>
ssa l</w>
arri ves</w>
al icia</w>
strea ks</w>
hor mon
et an</w>
ste ered</w>
k ent</w>
ce e</w>
ri co</w>
red head</w>
kat y</w>
ari sto
lan don</w>
gho stly</w>
fic ations</w>
mer lin</w>
door step</w>
ch unks</w>
legi on</w>
enthusi astic</w>
clari ssa</w>
bu dd
announ ce</w>
wee kends</w>
sol o</w>
gri ll</w>
mar y
zo ey</w>
mu zzle</w>
mass ac
tom s</w>
spar ked</w>
mil len
snat ch</w>
dis like</w>
mu sh
fer ry</w>
bro ther
co p
mo di
im possibly</w>
tun ed</w>
se ating</w>
russi a</w>
ffe l</w>
dark ening</w>
fra il</w>
respect ful</w>
intri cate</w>
fri es</w>
cr ate</w>
bre nt</w>
tent ative</w>
hoo ves</w>
di pping</w>
l loyd</w>
fil tered</w>
a in
shi mmered</w>
patr ons</w>
ha mmered</w>
atlan ta</w>
ar no
ya wn</w>
spi ders</w>
bl un
contempl ating</w>
appo inted</w>
sal on</w>
out skirts</w>
cro tch</w>
a spir
magne tic</w>
sh een</w>
brit t
vo ic
re jection</w>
lo ser</w>
fro g</w>
det ached</w>
cen tered</w>
band ages</w>
ss ful</w>
invol vement</w>
dru gged</w>
travel ling</w>
plu m
cur ran</w>
consi st
sta mped</w>
battle field</w>
ver bal</w>
emer ging</w>
ri sh</w>
lin ks</w>
to a
defin ition</w>
sur geon</w>
sha m
mirac ul
je m</w>
infin ite</w>
supre me</w>
shi vers</w>
moti oning</w>
che ering</w>
proxim ity</w>
cha iko</w>
in come</w>
he ating</w>
bre w</w>
er ran
cha tted</w>
sub sided</w>
snick ered</w>
pois oned</w>
leon ard</w>
in spected</w>
hallow een</w>
cra ving</w>
conce ded</w>
snar ling</w>
idi ots</w>
an alysis</w>
sho vel</w>
st ical</w>
s laugh
garden er</w>
der ick</w>
sal ty</w>
numb ered</w>
caf é</w>
cu ff</w>
sp rung</w>
mun d</w>
ela ine</w>
ba thro
offen sive</w>
mor ous</w>
who o
re yes</w>
b leak</w>
or chest
n ations</w>
inst itute</w>
echo es</w>
dar ies</w>
air plane</w>
pro f
im proved</w>
gra in</w>
un ic
breath lessly</w>
the at
bat s</w>
ci ans</w>
abra ham</w>
y an</w>
cel a
jac ques</w>
confid ently</w>
wit s</w>
w it</w>
ben ches</w>
ri pe</w>
pre n
inst alled</w>
whi stling</w>
travel s</w>
lat in</w>
as ses</w>
hu mble</w>
b ick
for mu
up coming</w>
r ack
fire works</w>
f lou
ven om</w>
deal er</w>
sick ening</w>
g loved</w>
sn ack</w>
re tire
ang eli
s lou
mon strous</w>
discipl ine</w>
a del</w>
cra dling</w>
2 7</w>
vir tu
ho ste
ha unting</w>
bul b</w>
reas onably</w>
wea ker</w>
ru bs</w>
pan cakes</w>
p inch</w>
lin o
j ed</w>
da h
sha ck</w>
grand son</w>
hon our</w>
enjoy ment</w>
do ts</w>
pr one</w>
saun tered</w>
perple xed</w>
execu tion</w>
bo omed</w>
at tire</w>
achi eved</w>
fi shed</w>
ar tem
subdu ed</w>
quick ened</w>
nerv ousness</w>
mat ing</w>
can o
an i</w>
pp i</w>
cur ving</w>
cu t
win dow
twi sts</w>
tel s</w>
de signs</w>
terr ori
inno cently</w>
con nie</w>
clear er</w>
g id</w>
a er
explo sive</w>
cela ena</w>
respon ds</w>
pil lars</w>
pen thouse</w>
em bedded</w>
consider ably</w>
britt any</w>
bi as</w>
wh ine</w>
pla ins</w>
estim ate</w>
ang ed</w>
scen ted</w>
po ck
pa ul
massa ge</w>
jer ks</w>
inha bit
ach eron</w>
sai lor</w>
li l
asse mbly</w>
su cker</w>
inva ded</w>
dra l</w>
lea der
gra zed</w>
ge ons</w>
apprehen sion</w>
sp ies</w>
holi days</w>
ha st
br acing</w>
stan ley</w>
squ eal</w>
ha des</w>
g i</w>
dom est
scol ded</w>
mp h</w>
il yn</w>
cur t</w>
cal yp
ess entially</w>
boun daries</w>
mer chant</w>
dra ining</w>
cli ffs</w>
ve ter
t as
rebel lion</w>
si e
mar king</w>
pal ed</w>
ab y
per mitted</w>
me e</w>
de ke</w>
bow ls</w>
scrat ches</w>
boun ty</w>
un lock</w>
sincer ity</w>
po lly</w>
h el</w>
ma ir
equi pped</w>
d u</w>
inten tionally</w>
afri can</w>
1 1
wil derness</w>
sk et</w>
re eling</w>
incredul ous</w>
straw berry</w>
no ses</w>
mi xing</w>
burea u</w>
al le</w>
ti ally</w>
bio logical</w>
sur f</w>
stagg ering</w>
mas ked</w>
aw fully</w>
skele ton</w>
mick ey</w>
fear ing</w>
enter pri
cor y</w>
her bs</w>
ter race</w>
g ash</w>
el dest</w>
acc o</w>
un wanted</w>
libr arian</w>
favour ite</w>
ta ker</w>
artem is</w>
sta dium</w>
tane ous</w>
danc ers</w>
dal inar</w>
v u
legitim ate</w>
le x
fal con</w>
to b
she a</w>
eu gene</w>
han gar</w>
boo ze</w>
swir l</w>
spi ed</w>
ho se</w>
cla sp</w>
ballo on</w>
t ley</w>
re acting</w>
le veled</w>
h m</w>
oper ative</w>
hel m</w>
s ings</w>
la den</w>
inter section</w>
oppo sed</w>
e o
di sta
st u</w>
spla shing</w>
la c</w>
br an</w>
per t</w>
mall ory</w>
u x</w>
sma shing</w>
outra ge</w>
opin ions</w>
investig ating</w>
g ale</w>
condu ct</w>
al ties</w>
wher eabouts</w>
rememb ers</w>
pun ches</w>
pop corn</w>
al lan</w>
tra ding</w>
une ven</w>
shi elded</w>
over looked</w>
man e</w>
introdu ction</w>
f right</w>
ear ances</w>
stri ped</w>
ha tt
ador ned</w>
zz i</w>
snea kers</w>
reali zes</w>
labor atory</w>
de fle
po pe</w>
com mission</w>
bel inda</w>
pro st
b ard</w>
tat tered</w>
alex a</w>
absor b</w>
v ale</w>
sla sh</w>
ski dded</w>
pe tals</w>
no vels</w>
lit s</w>
disappro val</w>
resu me</w>
l end</w>
ba iley</w>
restra int</w>
metho ds</w>
cla wing</w>
paraly zed</w>
hol l
fing ered</w>
shea thed</w>
reas surance</w>
syl la
am bush</w>
the me</w>
rin ce
positi vely</w>
bu bbling</w>
wrink les</w>
rince wind</w>
se mester</w>
k u</w>
hou sed</w>
clo sure</w>
b list
lo be</w>
examin ation</w>
radi ating</w>
can ada</w>
the st</w>
requi res</w>
ess ly</w>
solit ary</w>
ff les</w>
exclu sive</w>
spi ked</w>
divor ced</w>
jan ice</w>
cro ok</w>
oc ity</w>
ste er</w>
d .c.</w>
pre serve</w>
re sign
peri ph
l ens</w>
g ina</w>
ent it
re serve</w>
su tton</w>
situ ated</w>
per ver
insist ent</w>
bon ds</w>
spi kes</w>
s worth</w>
thick er</w>
harri et</w>
bra id</w>
ting led</w>
sp ying</w>
inha le</w>
eri ly</w>
squ ared</w>
simil ar
oun ts</w>
g in
wa tery</w>
sc roll</w>
dy na
susp en
sma sh</w>
inser ted</w>
in tegr
cathe dral</w>
ro ver</w>
nathani el</w>
ear rings</w>
car men</w>
a bun
shr ink</w>
tin ted</w>
ri des</w>
exhi lar
stupi dity</w>
industri al</w>
bryn na</w>
den tal</w>
tob acco</w>
par as
ir d</w>
d ick
adven tures</w>
car mine</w>
horri fic</w>
gi ddy</w>
sharp ened</w>
fer oci
tri mmed</w>
re ared</w>
ss i</w>
dri ck</w>
clo thed</w>
smol dering</w>
agre eing</w>
s lot</w>
z en
loo sen</w>
sne er</w>
produ cts</w>
silhou ette</w>
bry ce</w>
crou ch</w>
com a</w>
al ter
tru thfully</w>
remark ably</w>
mai den</w>
grocer ies</w>
je tt</w>
color ado</w>
activ ated</w>
re warded</w>
hatt an</w>
tor i</w>
smoo thing</w>
or ial</w>
2 6</w>
bri dget</w>
b ind</w>
spark le</w>
separ ating</w>
log ne</w>
incredul ously</w>
leader ship</w>
hall ways</w>
dis covering</w>
over all</w>
resen tment</w>
crou ching</w>
blur ry</w>
bin ocu
ast ically</w>
wa vered</w>
sk ins</w>
mas ks</w>
fu se</w>
g em
cra dle</w>
cal ler</w>
boo ked</w>
comm end</w>
a partments</w>
str y
ther esa</w>
re di
pur red</w>
t tie</w>
sla de</w>
pota to</w>
stair way</w>
conspir acy</w>
weigh ing</w>
exc ru
willi ams</w>
resign ation</w>
ow l</w>
new est</w>
whir ling</w>
snor ing</w>
vor ing</w>
vi on</w>
rol ler</w>
cla ssm
oly mp
fe bru
recogni sed</w>
ma ine</w>
excru ci
so c
ri mmed</w>
ke ttle</w>
cru el
cap es</w>
calen dar</w>
bar ren</w>
du bi
un done</w>
ic o</w>
fin s</w>
experim ents</w>
mo ck
empha sis</w>
b able</w>
ti mo
ho stage</w>
glimp sed</w>
spra wling</w>
retire ment</w>
protec tor</w>
predic ted</w>
sa mmy</w>
m me</w>
le ver</w>
wher eas</w>
t to</w>
cro aked</w>
cli max</w>
catholi c</w>
sp ace
f ry</w>
contin ent</w>
febru ary</w>
mach in
la ds</w>
con stan
ri ppling</w>
step han</w>
je wish</w>
ea ses</w>
sa etan</w>
bo il</w>
se dan</w>
pre tti
exten d</w>
vi per</w>
to p
le ys</w>
fli ghts</w>
comfor ted</w>
devast ated</w>
uncontrolla bly</w>
soc cer</w>
de xter</w>
swi g</w>
fla kes</w>
dar lin</w>
ad ored</w>
tu lly</w>
co ws</w>
par ch
murmur ing</w>
mu tters</w>
mel an
nu zzled</w>
expan ded</w>
civi lian</w>
fla pping</w>
elem ental</w>
tacti cs</w>
sha man</w>
p he</w>
di mmed</w>
il ly</w>
au dit
t iti
pen dant</w>
lu tion</w>
ver a</w>
seep ing</w>
scri ption</w>
tr i</w>
niko lai</w>
a o</w>
so l</w>
kidna pping</w>
kan sas</w>
man hattan</w>
d ations</w>
bar bie</w>
man ly</w>
coo p</w>
monit ors</w>
ed itor</w>
cu ffed</w>
cryst als</w>
be es</w>
sett lement</w>
invest ment</w>
si d
ca thy</w>
shal lan</w>
sel ection</w>
jer ic
corin ne</w>
bud get</w>
stri ps</w>
mi mic
car ni
associ ate</w>
spra yed</w>
off rey</w>
no tor
binocu lars</w>
imp r
ev alle</w>
gal en</w>
dark ly</w>
twir led</w>
exha le</w>
ca den</w>
z ona</w>
po les</w>
loc ations</w>
ad es</w>
acquaint ance</w>
must ache</w>
win ner</w>
rober ts</w>
deb bie</w>
ci e</w>
quar ter
oo oo
invol ving</w>
compul sion</w>
ti dy</w>
ta ke
compla int</w>
ar ose</w>
si ll</w>
refu ge</w>
bar be
ba il</w>
sin clair</w>
si eur</w>
manipul ate</w>
i ousness</w>
za c</w>
to ll</w>
sp uttered</w>
sp at
opp re
disp u
fe ature</w>
cro p</w>
ni all</w>
mirr ored</w>
blin ds</w>
hand cuffs</w>
glo bal</w>
domin ated</w>
penetr ated</w>
y '
ort ation</w>
kit ty</w>
dimen sion</w>
bas in</w>
rhe a</w>
mo ore</w>
lan der</w>
embro i
tar yn</w>
reli eve</w>
plu sh</w>
imp ending</w>
gi ants</w>
a dol
hel l
vil la</w>
sha n</w>
ray mond</w>
agre es</w>
ri pple</w>
ph or
c ack
am elie</w>
se ssions</w>
si zes</w>
rene e</w>
re my</w>
sli e</w>
asp halt</w>
remo tely</w>
frag ments</w>
cha ttering</w>
sp it
no tch</w>
mi ssions</w>
swi pe</w>
pu l</w>
mechani sm</w>
kin ca
grea se</w>
desc end</w>
we tness</w>
c el</w>
baf fled</w>
t anya</w>
s ven</w>
pre acher</w>
plan ting</w>
st il
pon der</w>
flo or
c ease</w>
a mat
wal lace</w>
sn agged</w>
responsi bilities</w>
quo te</w>
mb ur
th reads</w>
va se</w>
gre y
bo re
p .
cyn thia</w>
wed ged</w>
sta kes</w>
1 6
y on</w>
un easily</w>
ca ver
si del
mar ker</w>
lin er</w>
ot to</w>
m ers</w>
e z</w>
bloo m</w>
le slie</w>
kel sey</w>
bri sk</w>
ro ast</w>
ed gar</w>
co ve</w>
ter ra</w>
langu ages</w>
i ah</w>
stu ffing</w>
inven ted</w>
defi ance</w>
bu mping</w>
villa ges</w>
flo ck</w>
fac ebook</w>
i re
even ings</w>
dep end</w>
kinca id</w>
v able</w>
mischiev ous</w>
drea ded</w>
co logne</w>
bri ghtness</w>
lit ter</w>
ing redi
engine ering</w>
vacu um</w>
enthusi astically</w>
re placement</w>
enfor cement</w>
il da</w>
al lows</w>
bra ith</w>
umb rella</w>
ori um</w>
mon u
som ber</w>
gau ge</w>
disagre e</w>
qui zz
ne cks</w>
col lin</w>
sal vation</w>
plu g</w>
fai ries</w>
some thin'</w>
pro dded</w>
wee p</w>
drag on
ris oned</w>
sp her
insul ted</w>
in appropriate</w>
de ton
un do</w>
circu it</w>
chann els</w>
sever ely</w>
scru b</w>
mon sieur</w>
b u</w>
ali sts</w>
no va</w>
crun ch</w>
ba k
wal t</w>
ti sh</w>
heaven ly</w>
char t</w>
blu ff</w>
ma dly</w>
cra zed</w>
wa tering</w>
pit cher</w>
od le</w>
mom entary</w>
gi bb
dea f</w>
villa gers</w>
travel led</w>
skepti cal</w>
sam ples</w>
o val</w>
fre y</w>
ach ment</w>
fi es</w>
cho res</w>
compe tent</w>
the ories</w>
ru st</w>
in spect</w>
du m
den im</w>
disp er
sco op</w>
hoste ss</w>
foot age</w>
star ved</w>
sa ils</w>
or bit</w>
ha le</w>
al ma</w>
re present</w>
to ed</w>
sti ble</w>
st ead</w>
sou l
p ony</w>
investig ator</w>
ari zona</w>
pean ut</w>
no x
id le</w>
bo bbing</w>
amb i
arch way</w>
decl ined</w>
we bs</w>
supp lied</w>
f iling</w>
en ters</w>
hor de</w>
lef to
so ck</w>
prepar ations</w>
col oni
sla b</w>
o y</w>
harmon y</w>
go of
counsel or</w>
app les</w>
ali stair</w>
ha il</w>
cha n</w>
ac ha
twink ling</w>
gr it</w>
ta ped</w>
i ona</w>
gol d
ex am</w>
doub tful</w>
in cen
bon us</w>
ari el</w>
wre tched</w>
sna ked</w>
poor ly</w>
mic ha
wa iled</w>
re fra
ou ted</w>
la sting</w>
corpor ation</w>
ba u
photogra pher</w>
inter com</w>
ha bit
fe at
engine er</w>
consu me</w>
che at</w>
ran som</w>
plun ging</w>
2 8</w>
ty ping</w>
phan tom</w>
emplo yer</w>
arm chair</w>
stea died</w>
hu ff</w>
gra phic</w>
gi fted</w>
syl vie</w>
sch em
jab bed</w>
grav eyard</w>
cer eal</w>
wa kes</w>
sla ms</w>
sen ess</w>
is ana</w>
asse ssment</w>
b is</w>
amu let</w>
po ly
pro minent</w>
grand daughter</w>
c ti
amaz ingly</w>
gr unts</w>
devel oping</w>
cha u
w right</w>
mea sures</w>
relea ses</w>
presen tation</w>
mar ines</w>
tw inge</w>
reas oned</w>
na iled</w>
at tribu
qu ent
ha d
effor tlessly</w>
scree ching</w>
fac e
sm a</w>
reapp eared</w>
athle tic</w>
al ter</w>
rebel s</w>
men ting</w>
manu el</w>
im p</w>
gri ps</w>
disda in</w>
car to
j ur
mag ing</w>
indi ans</w>
se ctor</w>
sw arm</w>
per mit</w>
char red</w>
k ly</w>
reluc tance</w>
2 9</w>
p o</w>
in sight</w>
ca mou
fu mbling</w>
down right</w>
imp risoned</w>
hou sing</w>
hi ke</w>
gra ves</w>
camou fla
bo a
stret ches</w>
slu t</w>
scar ing</w>
enhan ced</w>
sol ving</w>
ris king</w>
gli mmer</w>
calcul ated</w>
trau ma</w>
hau ling</w>
s ling</w>
quent in</w>
inten ding</w>
tar ge
stu ttered</w>
hu go</w>
y .</w>
ch ey
see ds</w>
lin a</w>
physi cs</w>
gg ins</w>
tain ted</w>
ph oned</w>
hu e</w>
dark est</w>
na m</w>
en dea
tra ded</w>
intensi fied</w>
re marks</w>
out burst</w>
p board</w>
hit ler</w>
da is</w>
beat rice</w>
l ore</w>
gur g
ca ia</w>
arrang ing</w>
sli ppers</w>
ne cro
dri p</w>
sol ely</w>
ram sey</w>
know ingly</w>
ma b</w>
boul ders</w>
e .</w>
cla p</w>
cano e</w>
vi su
spla yed</w>
fl ur
chur ned</w>
mai ds</w>
exp lic
sor y</w>
h ence</w>
sli ver</w>
punc tu
g at
fal lon</w>
ch ev
busin esses</w>
ti mmy</w>
ani a</w>
stit ches</w>
priv ately</w>
co lo
pro pose</w>
night gown</w>
hy dr
estab lish</w>
assu mption</w>
ri ot</w>
passage way</w>
inf o</w>
sa brina</w>
moti ves</w>
imp lied</w>
bl er</w>
con greg
ph y
fe y</w>
dish ev
ac res</w>
transl ated</w>
re placing</w>
da sh
const able</w>
a midst</w>
ribb ons</w>
solo mon</w>
chan ting</w>
sentin el</w>
li ke
sha tter</w>
e h
dr one</w>
at ore</w>
disp en
squir m</w>
fla vor</w>
bra den</w>
leg ally</w>
explo sions</w>
un steady</w>
scho lar
inev it
gen t
ed win</w>
por cel
vic inity</w>
paci fic</w>
loa ds</w>
do o</w>
pri mal</w>
vani sh</w>
model s</w>
ho pping</w>
ni bbled</w>
tru m</w>
ti er
mon roe</w>
grate fully</w>
da ze</w>
confin ed</w>
cat alo
we sley</w>
scrun ched</w>
elev ators</w>
com promise</w>
ba y
ve e</w>
sh yly</w>
d ire</w>
3 5</w>
tu mble</w>
ta m</w>
j .
diti ons</w>
wa i
ri d
sor ting</w>
oper ator</w>
dis connected</w>
accu sing</w>
the tically</w>
ru shes</w>
ad jac
ja i</w>
trigg ered</w>
tran smi
shi elding</w>
fo il</w>
fa erie</w>
con stri
ch anc
sa voring</w>
gab by</w>
dd ler</w>
supp ress</w>
mag es</w>
cra mmed</w>
tru dged</w>
rea dily</w>
diag no
collap sing</w>
ful fill</w>
adjac ent</w>
sedu ce</w>
preci sion</w>
enter tain</w>
am ounts</w>
fit z
b bi
por tions</w>
fu tile</w>
er nie</w>
ed a</w>
cre ed</w>
ra mi
pow ering</w>
stati oned</w>
proto col</w>
pri est
re i</w>
ann wyl</w>
scri bbled</w>
jo anna</w>
and al
ti l</w>
ar k</w>
timo thy</w>
hoo ks</w>
gi g</w>
geor gie</w>
be v</w>
mesmeri zed</w>
g ps</w>
co yo
can al</w>
bare foot</w>
al bum</w>
techni que</w>
noti ces</w>
meaning less</w>
inter n
go th</w>
chand eli
gra des</w>
chi ef
an nu
an ey</w>
por ter</w>
cro ws</w>
sequ ence</w>
salv atore</w>
irrit ating</w>
cun ning</w>
pp ings</w>
n ou
li me</w>
ca mping</w>
wa il</w>
ju an</w>
al ina</w>
sub conscious</w>
protru ding</w>
un c
o ce
hoar sely</w>
har vest</w>
distur b
complex ion</w>
tatto oed</w>
pan els</w>
har as
fl ated</w>
pas sport</w>
mo il</w>
hi king</w>
for giving</w>
phenom en
hon orable</w>
dic t
de pic
tre mor</w>
gun shot</w>
gru ff
ada ms</w>
wh ining</w>
su spects</w>
expl ored</w>
b yes</w>
read able</w>
elli ott</w>
dela yed</w>
lu cent</w>
in capable</w>
suz anne</w>
ss ors</w>
i ra
pe ach</w>
en raged</w>
tra ps</w>
tele path
ro ssed</w>
jo gging</w>
collar bone</w>
al a
spa de</w>
jo g</w>
fore finger</w>
coun tess</w>
au burn</w>
ch ard</w>
u ms</w>
associ ation</w>
refle ct</w>
pu ffy</w>
kur t</w>
ar ab
thro b</w>
tan a</w>
er ect</w>
col oured</w>
tre ats</w>
cl y
sen su
ex posure</w>
del aney</w>
colli ded</w>
1 5
si erra</w>
ex ce
rest room</w>
plun ge</w>
mar c</w>
inha ling</w>
al lo
wan da</w>
tur moil</w>
bi l</w>
fa el</w>
de u
dani elle</w>
bic y
stu mp</w>
i si
ch in
shrie king</w>
head board</w>
eli ght</w>
k or</w>
3 2</w>
domin ant</w>
com bed</w>
bur ke</w>
sel don</w>
purpo sely</w>
ck age</w>
sket ch</w>
se clu
jeric ho</w>
jer emi
farm house</w>
te gan</w>
sa vi
pl er</w>
gli de</w>
e ter</w>
se i</w>
go sh</w>
cir cus</w>
ar nie</w>
ar mored</w>
s ated</w>
rea ded</w>
po dium</w>
imagin able</w>
eye balls</w>
arno ld</w>
sick ly</w>
en ca
si zing</w>
re union</w>
her it
sal i</w>
gar a</w>
bear ded</w>
un usually</w>
skul ls</w>
mo cked</w>
ko v</w>
pea ks</w>
chi m
cat cher</w>
mor o
me ti
je ws</w>
fil tr
w a</w>
tri cky</w>
scen ery</w>
lun ch
c d</w>
ha mp
sha ke
sco o
or ting</w>
farm ers</w>
do dging</w>
pla ster</w>
li lith</w>
har b
har v
vi st</w>
glin ted</w>
deli vering</w>
quie ter</w>
g room</w>
ga unt</w>
vibr ation</w>
shoul dered</w>
pi ke</w>
nu de</w>
luxuri ous</w>
com missi
wri thed</w>
ti pping</w>
ssi on
ha unt</w>
under water</w>
sub sequ
shep herd</w>
presen tly</w>
e gw
de sol
su zy</w>
nar row
maxi mum</w>
involun tarily</w>
g listened</w>
ch i</w>
me t
exten sive</w>
ta unting</w>
sapp hire</w>
god damned</w>
shi n</w>
regre ts</w>
no el</w>
mun ition</w>
inspir ation</w>
hor ace</w>
egw ene</w>
candi date</w>
un covered</w>
thir ties</w>
ridicul ously</w>
ton i</w>
sheepi shly</w>
opportun ities</w>
an te</w>
x ander</w>
squee zes</w>
crea k</w>
porcel ain</w>
aval on</w>
ign ited</w>
i ssa</w>
nic er</w>
herit age</w>
fi sh
fi li
f anci
dd ers</w>
da zzling</w>
disin tegr
custom s</w>
ro bbed</w>
im mortality</w>
du cking</w>
z ers</w>
squat ted</w>
sil ken</w>
flaw less</w>
missi le</w>
chey enne</w>
am munition</w>
wa tered</w>
or deal</w>
or na
kne el</w>
an ca</w>
yel ped</w>
swi veled</w>
legen ds</w>
w y</w>
strai ghter</w>
ke e</w>
car n
run way</w>
p ines</w>
mun dane</w>
crea my</w>
m ity</w>
tre k</w>
orig in</w>
org ans</w>
fore sts</w>
z ander</w>
kee pers</w>
for ti
chil ls</w>
bur nett</w>
gra ssy</w>
educ ated</w>
tter y</w>
p .</w>
he dge</w>
gar eth</w>
re commend</w>
re calling</w>
persi sted</w>
ni pped</w>
f fe</w>
sham poo</w>
k el</w>
elep hant</w>
don 't</w>
corpor al</w>
profe ssion</w>
coo lly</w>
anim ated</w>
tri ple</w>
de als</w>
c ements</w>
to ppled</w>
detec tives</w>
van illa</w>
s .com</w>
re tire</w>
label ed</w>
gar ment</w>
dra pes</w>
al be
sto wed</w>
er ies</w>
chil ling</w>
tren ch</w>
ri p
intel lec
cab ly</w>
wag ons</w>
gar go
conclu sions</w>
fi sher
belie fs</w>
to bias</w>
smir king</w>
li ce</w>
gar lic</w>
tendri ls</w>
re store</w>
ir resi
fu ls</w>
equi valent</w>
zo o</w>
tur n
al ling</w>
wa vy</w>
ev acu
direc ting</w>
bloo died</w>
ja yden</w>
d j</w>
ta ps</w>
suggesti ons</w>
devast ating</w>
min es</w>
w ired</w>
w edge</w>
jeff erson</w>
r ough
bou quet</w>
val id</w>
mour ning</w>
loo k
du mp
sty x</w>
quali fied</w>
fra mes</w>
ver ity</w>
ski pping</w>
sar ge</w>
op ar
breath taking</w>
privile ge</w>
d ential</w>
z an
su la</w>
ma sses</w>
girl friends</w>
un moving</w>
ali zing</w>
vigor ously</w>
r anger</w>
fa x</w>
cau l
spo il</w>
ai de</w>
un certainly</w>
fig ur
entit led</w>
d ely</w>
yach t</w>
no i
m ati
m acc
jud ith</w>
flir t</w>
wren ching</w>
recogni zing</w>
flu te</w>
jee z</w>
tri pping</w>
on ship</w>
win ks</w>
w inged</w>
vo ws</w>
thra shing</w>
than king</w>
objec tive</w>
tr o</w>
sur vey</w>
ic an</w>
chri ssy</w>
austr alia</w>
ru ining</w>
ea g
wor ms</w>
un buttoned</w>
j elly</w>
dis rup
crea king</w>
ra d
lan tly</w>
ra gs</w>
mi ssy</w>
but cher</w>
per rin</w>
van ity</w>
har a</w>
flan ked</w>
bren na</w>
sali va</w>
ra fael</w>
fri ghten</w>
scru tin
plu gged</w>
gr un
for th
techn ical</w>
sin ess</w>
clean er</w>
shre dded</w>
r s</w>
mi mi</w>
dang ers</w>
d enti
morti mer</w>
kel sier</w>
h on</w>
applic ation</w>
gre ed</w>
gg ers</w>
f en</w>
er rand</w>
addic tion</w>
so ared</w>
ici ency</w>
disappo int</w>
cand l
pre car
log ically</w>
hormon es</w>
be acon</w>
oper ated</w>
li mit
l ant</w>
hill side</w>
approxim ately</w>
sp lattered</w>
mul ti</w>
bre ach</w>
pic ally</w>
obsc ured</w>
jose phine</w>
foot prints</w>
fav ors</w>
bo one</w>
s me
lli an</w>
sat an</w>
resi sting</w>
par ag
p son</w>
m '
inhabit ants</w>
as es</w>
jack y</w>
scree ch</w>
je opar
arti sts</w>
un settling</w>
re tali
cy cles</w>
cul t</w>
at re
verti cal</w>
sc outs</w>
s wat
reg in
notic eable</w>
ir rational</w>
estab lishment</w>
er ous</w>
el ected</w>
­ ­
dar n</w>
com pass</w>
mischi ef</w>
im posing</w>
co operate</w>
ch arms</w>
reg gie</w>
dun no</w>
def ended</w>
char le
thera pist</w>
poten tially</w>
dd ington</w>
thunder ed</w>
go als</w>
g lee</w>
fri gid</w>
so ak</w>
con duc
br ed</w>
so b
sle eved</w>
le ver
cour ts</w>
celebr ity</w>
c ann
adv ancing</w>
ru th
po tion</w>
or d</w>
lu lu</w>
ga mbling</w>
bor ders</w>
ri al</w>
camp bell</w>
ath on</w>
tor na
medic s</w>
ten th</w>
intimid ated</w>
pla za</w>
blu es</w>
al as
ra mp
fla iling</w>
cross bow</w>
comfor ter</w>
spr int</w>
scat tering</w>
ra mon</w>
parch ment</w>
ke ira</w>
gr ind</w>
bo obs</w>
sel ec
pursu ed</w>
fe e</w>
car pe
kath leen</w>
bu lly</w>
ni gel</w>
ea ves
piti ful</w>
ri val</w>
rever sed</w>
me o</w>
box er</w>
soun d
p eel</w>
gar ments</w>
deli ghtful</w>
ad ver
wal l
gi s
associ ates</w>
psy cho</w>
any ways</w>
fa thom</w>
a dam
cu bic
week ly</w>
wa d</w>
murder ous</w>
stac ey</w>
pi geon</w>
elec tion</w>
dou gal</w>
cin na
blun tly</w>
assa ulted</w>
sha ven</w>
pro claimed</w>
obli vion</w>
so lic
po sters</w>
defen sively</w>
ser y</w>
senten ces</w>
rel ations</w>
du ffel</w>
de z
car din
ta pe
scra mble</w>
maneu vered</w>
len ny</w>
er ica</w>
bi a</w>
albe it</w>
t ative</w>
power less</w>
for ged</w>
crun ching</w>
b angs</w>
al ar
sh rou
main taining</w>
en su
desp ised</w>
x an
struc tures</w>
ri ck
discre et</w>
ar cha
slo ppy</w>
por t
ma hog
frustr ating</w>
amp li
u ts</w>
u k</w>
ma gi
mahog any</w>
bachel or</w>
vin ci
miser ably</w>
macc on</w>
l ls</w>
drea mer</w>
ten tly</w>
pursu ing</w>
pi gs</w>
st ony</w>
like wise</w>
im mortals</w>
hu m
di sli
stri pping</w>
squ at</w>
sky ler</w>
ic king</w>
cinna mon</w>
stu pidly</w>
righte ous</w>
confin es</w>
acade mic</w>
sin ks</w>
hoi sted</w>
con spic
col league</w>
y man</w>
roo ted</w>
fe st</w>
da im
proper ties</w>
a sian</w>
tack le</w>
regin ald</w>
gu el</w>
d c</w>
ve ted</w>
rec la
re solu
pu ck
lei surely</w>
ma thias</w>
gr ounded</w>
v ous</w>
li mped</w>
de pressing</w>
advi se</w>
-------- --------
y earning</w>
tw are</w>
ro sy</w>
dist orted</w>
wa sher</w>
roa med</w>
cur ed</w>
wa s
twink le</w>
in filtr
lit ted</w>
bul ky</w>
v ane</w>
em bas
anc he</w>
physi cian</w>
mi k</w>
bla sting</w>
vin a</w>
radi ation</w>
melan cho
mathe mat
can a
c unt</w>
dev oured</w>
ing o</w>
celebr ating</w>
pro sper
tit les</w>
posse ssions</w>
civili zed</w>
al ls</w>
near ing</w>
ni sh</w>
go ver</w>
vi sc
gruff ly</w>
mont gom
h ee
famili arity</w>
un deni
ni x</w>
broad cast</w>
meaning ful</w>
quil t</w>
e gyp
disc ou
aler ted</w>
revol ver</w>
prot ests</w>
a stron
nur sery</w>
accommo date</w>
new com
lea king</w>
conditi oning</w>
bri a</w>
te qu
ey el
pa ys</w>
s u</w>
roa ming</w>
halluc in
car rier</w>
bal tha
aver ted</w>
whir l
st ick
gobl in</w>
on da</w>
eigh th</w>
appren tice</w>
tequ ila</w>
br ink</w>
un zipped</w>
thom pson</w>
unlea shed</w>
lin ess</w>
li sts</w>
be x</w>
o ch</w>
har low</w>
hand writing</w>
ain sley</w>
mu mbling</w>
wom b</w>
thre n</w>
secre cy</w>
free zer</w>
slu mber</w>
parti al</w>
menti oning</w>
ge m</w>
bul ge</w>
test im
gra vely</w>
p his</w>
uni formed</w>
radi ant</w>
ett i</w>
d les</w>
ba king</w>
tin k
k h
hus bands</w>
ang ling</w>
t rolls</w>
slan ted</w>
len ses</w>
a ph
yan n</w>
struc tive</w>
quie ted</w>
pan try</w>
econ omy</w>
c one</w>
broad ly</w>
3 3</w>
requi re
mat thias</w>
in fan
chal k</w>
ul ate</w>
oc ta
ali g
wi e</w>
transp ortation</w>
theat re</w>
scar es</w>
ra spy</w>
proph et</w>
li est</w>
ru stle</w>
mau rice</w>
k ol
con venti
negle cted</w>
in less</w>
gan sey</w>
bi kes</w>
wei gh</w>
ful filled</w>
bore dom</w>
vin nie</w>
thr yn</w>
sp a</w>
rec tan
leg acy</w>
ell i</w>
char coal</w>
app earances</w>
wa iling</w>
tri angle</w>
stan g</w>
respec table</w>
min dless</w>
la va</w>
disori ented</w>
u de</w>
mar is</w>
sof tware</w>
pe acefully</w>
f u</w>
devo tion</w>
specul ation</w>
rectan gular</w>
re fin
illumin ating</w>
con sent</w>
brother hood</w>
ali x</w>
ac tors</w>
vulner ability</w>
ha sty</w>
up date</w>
tren ton</w>
sha m</w>
medi c</w>
lar gely</w>
coo ling</w>
batt ling</w>
si ed</w>
sexu ally</w>
ai mee</w>
bo oming</w>
se fully</w>
perc epti
g roo
vi et</w>
loo ped</w>
hurri cane</w>
holi c</w>
be thel</w>
ss en</w>
l aces</w>
broo ding</w>
ser ene</w>
tur ous</w>
sp ire</w>
scan dal</w>
guarante ed</w>
foli age</w>
u mm</w>
du sted</w>
re ti
succe ssion</w>
ser pent</w>
beha ved</w>
sugge sts</w>
cho pper</w>
1 4
pe ers</w>
non chal
lind sey</w>
functi oning</w>
eri an</w>
corn ered</w>
cle men
o oh</w>
fo e</w>
pro bing</w>
jen kins</w>
d re</w>
tati ana</w>
nat asha</w>
fre ckles</w>
cara van</w>
bri e
bloo ded</w>
test i
luci us</w>
life mate</w>
ho mel
sw earing</w>
li s
ch el</w>
camil le</w>
ting ed</w>
fl u</w>
dom ain</w>
wre ckage</w>
plum me
penetr ating</w>
vi gil
br at</w>
d v
clear s</w>
per ch</w>
ju ven
j illian</w>
i da
cre ws</w>
sa zed</w>
fa me</w>
su re
jag u
ha ck</w>
g ears</w>
penetr ate</w>
lar y</w>
bu ster</w>
squir ming</w>
shi mmer</w>
dec eption</w>
ty pically</w>
ma eve</w>
en a
barre ls</w>
stry ker</w>
distinc tly</w>
dev lin</w>
wea thered</w>
sau l</w>
tran sition</w>
nox ious</w>
ad dressing</w>
instru ction</w>
hard wood</w>
ema ils</w>
brea thes</w>
the ft</w>
sand ers</w>
e erily</w>
who lly</w>
ty rion</w>
pa sta</w>
lun atic</w>
for mid
acceler ated</w>
pu mps</w>
cont orted</w>
un readable</w>
drop lets</w>
bag gage</w>
mi sts</w>
fur ry</w>
er ased</w>
cerem on
canc el</w>
intri guing</w>
att ackers</w>
ra sh</w>
dra de</w>
dani els</w>
cre ator</w>
la ys</w>
da kota</w>
bun ker</w>
manic ured</w>
ire land</w>
expan ding</w>
domest ic</w>
cu be</w>
wren ch</w>
wea ve</w>
whi sky</w>
tom as</w>
lar k</w>
ir re
at ro
amb rose</w>
ta iled</w>
d ently</w>
bar racks</w>
ous ine</w>
ja pan</w>
swo oped</w>
s nee
mc bride</w>
da vi
d' ar
un did</w>
lim ousine</w>
dol ph</w>
wil lie</w>
transp orted</w>
sel ect</w>
gu t
e ats</w>
ra mmed</w>
mul ated</w>
hi pp
bra ke</w>
watch ful</w>
ren dered</w>
ne dra</w>
memor ial</w>
ch ests</w>
au ction</w>
sa p</w>
ben ed
abu sed</w>
deb ated</w>
symp toms</w>
r er
predic ament</w>
ce o</w>
brand t</w>
v icky</w>
ou x</w>
b room</w>
strugg les</w>
spec ting</w>
ob jected</w>
l .a.</w>
cru mbled</w>
indepen dence</w>
ta unted</w>
materi alized</w>
der rick</w>
po ppy</w>
pla id</w>
excruci ating</w>
mi ami</w>
ger mans</w>
fac ade</w>
val en
resur rec
imp as
fac ilities</w>
cr acy</w>
un predictable</w>
gri d</w>
ta xes</w>
appro aches</w>
li ghten</w>
entr yway</w>
sni per</w>
mor rison</w>
lea ked</w>
dispo sal</w>
cel yn</w>
atlan tic</w>
secu rely</w>
perc eived</w>
mor on</w>
fan ned</w>
se ph
sa di
mp h
la bored</w>
acqua inted</w>
pat ty</w>
im mer
ci sm</w>
cel ess</w>
vo iced</w>
th readed</w>
of t</w>
cli pboard</w>
c latter</w>
and ro
u t
stat ements</w>
sli ces</w>
mck ay</w>
har dness</w>
di le
org anic</w>
se ize</w>
sacrific ed</w>
illu str
g han</w>
ri l</w>
be ep</w>
ru gged</w>
cl one</w>
sof ten</w>
vig or</w>
presu me</w>
identi fication</w>
gobl ins</w>
dg ingly</w>
bu bbled</w>
bru te</w>
spo ok</w>
n ab
d wind
bb ly</w>
terrori sts</w>
ta b</w>
lo de
jack ets</w>
intoxic ating</w>
dismi ss</w>
un fa
mor t
form ally</w>
employ ment</w>
e te</w>
spect acle</w>
monit oring</w>
cha ir
reco iled</w>
tur tle</w>
re fer</w>
over grown</w>
mid day</w>
sul len</w>
mu mble</w>
del le</w>
auth enti
ent ity</w>
ca st
and ers</w>
stal ls</w>
stal lion</w>
mar qu
devo id</w>
ca ster</w>
fav our</w>
en cies</w>
vol can
surr ound</w>
p p</w>
myster ies</w>
ha milton</w>
accor d</w>
shado wh
formid able</w>
cor al</w>
sp ins</w>
wit ch
scho lar</w>
ale a</w>
alco ve</w>
produ cing</w>
o hi
instru ctor</w>
flur ry</w>
ta mara</w>
sha ggy</w>
progra mmed</w>
persist ent</w>
n agging</w>
machin ery</w>
in coming</w>
f lips</w>
3 1</w>
it ors</w>
cruel ty</w>
hu n</w>
ho tels</w>
expe dition</w>
di se
jo se</w>
finger tip</w>
fe tched</w>
cruci al</w>
be in</w>
new t</w>
frequ ency</w>
dev in</w>
bi anca</w>
men ace</w>
sub way</w>
gloo my</w>
glin ting</w>
dol ls</w>
business man</w>
trac tor</w>
shu ffle</w>
exp and</w>
coun sel</w>
refre shing</w>
h ounds</w>
sub mit</w>
bu ds</w>
a ya</w>
wol fe</w>
ro am</w>
re public</w>
min ation</w>
jon e
cha sti
thor pe</w>
embas sy</w>
dim ples</w>
web b</w>
al o</w>
si ght
cr inge</w>
pro pri
ha un
solit ude</w>
off spring</w>
irresi stible</w>
wi pes</w>
chi sel
de emed</w>
sta mp</w>
mer it</w>
ma scar
ca v
a ha</w>
loo kin</w>
cour sing</w>
fee ble</w>
dishev eled</w>
3 8</w>
son ia</w>
hea dy</w>
de fec
cly de</w>
6 0</w>
smir ks</w>
hun gri
hoo ds</w>
da ss</w>
d th</w>
ur i</w>
shadowh un
separ ation</w>
out door</w>
compli ments</w>
vie t
scru tiny</w>
out lined</w>
k im
gla ssy</w>
flar ing</w>
whi tes</w>
sha pe
re nia</w>
mar tial</w>
ka thryn</w>
min ated</w>
cul tural</w>
ari anna</w>
ri ages</w>
mur ky</w>
micro wave</w>
asse ts</w>
persua ded</w>
embarra ss</w>
certi fic
an gular</w>
ves sels</w>
ha mbur
fi ance</w>
wil ly</w>
vi k</w>
swit ching</w>
di ss
da ir</w>
arm our</w>
ste ely</w>
splen did</w>
rum maged</w>
protec tively</w>
pr ying</w>
dee ds</w>
c lattered</w>
aby ss</w>
wi sely</w>
v at
demi se</w>
bever ly</w>
sc ored</w>
conten tment</w>
consequ ence</w>
body guards</w>
am mo</w>
sh an
repor ting</w>
inter views</w>
hon y</w>
declar ation</w>
coo led</w>
univer sal</w>
org as
leng ths</w>
au to</w>
nu dge</w>
jeremi ah</w>
hei ghtened</w>
al fred</w>
a mple</w>
cour sed</w>
a mi
vo cal</w>
spot light</w>
min ing</w>
fun ctions</w>
sett les</w>
exist ent</w>
le op
ki ara</w>
gyp sy</w>
continu ally</w>
char ley</w>
blo g</w>
a shed</w>
exten sion</w>
d ite</w>
clo wn</w>
calcu lating</w>
un consciously</w>
scri bed</w>
pol gara</w>
horiz on
gro te
cr atic</w>
bun ched</w>
squir rel</w>
spe are</w>
ly rics</w>
gre ens</w>
sat chel</w>
hor ny</w>
gra zing</w>
be tsy</w>
ba p
richar ds</w>
ke ting</w>
inse ct</w>
missi ssi
mic i
be ige</w>
sen seless</w>
qu alities</w>
low est</w>
lov ingly</w>
ad just
a im
to sses</w>
in ability</w>
ear shot</w>
ba xter</w>
la pping</w>
hand les</w>
stom ping</w>
pa ste</w>
on ous</w>
clar ence</w>
bry son</w>
ru pert</w>
bott oms</w>
work out</w>
sm acking</w>
elimin ate</w>
cal ves</w>
pu mp
pal p
glar es</w>
gar rison</w>
luci fer</w>
len ess</w>
fin ch</w>
sh rin
purpo sefully</w>
ca dence</w>
her b</w>
g ill</w>
easi est</w>
dev a
spec im
scholar ship</w>
mu gs</w>
da shing</w>
compla ints</w>
ru mpled</w>
hoo king</w>
g agged</w>
y '</w>
recogni zable</w>
m alone</w>
tr in
out fits</w>
mat ilda</w>
holl ered</w>
disp laying</w>
disgui sed</w>
chanc el
van a</w>
stubbor nly</w>
s lat
fra gr
classm ates</w>
sur ging</w>
shake speare</w>
ky rie</w>
jo lene</w>
he ed</w>
understand able</w>
t down</w>
kel ler</w>
h or</w>
bo wling</w>
yo ga</w>
proce ssing</w>
mar yann</w>
m k
kit ch
ingredi ents</w>
con co
ty r
s late</w>
restra in</w>
kar ou</w>
flu ore
de stri
de cker</w>
russi ans</w>
en visi
ba x</w>
the sis</w>
du al</w>
deposit ed</w>
car path
betra ying</w>
atten dance</w>
20 14</w>
sla yer</w>
ic ity</w>
en e
dear est</w>
po sit</w>
w ls</w>
app alled</w>
san der</w>
plat ter</w>
op ted</w>
et ary</w>
sa ff
mol ten</w>
mascar a</w>
ke ely</w>
expre ssion
quir ked</w>
play ground</w>
mor ton</w>
bu mper</w>
be tting</w>
vo y</w>
tel e</w>
s so</w>
mad dox</w>
elec tro
d ank</w>
cho p</w>
agoni zing</w>
wrec ked</w>
ti ckling</w>
ohi o</w>
go ggles</w>
le mon
ko re
co ast
tor mented</w>
no ff</w>
clo ck
pri ed</w>
mississi ppi</w>
mag ically</w>
is le</w>
al ab
a ki
tro pical</w>
bun ny</w>
un stable</w>
ten dency</w>
red dish</w>
isra el</w>
e ti
bel ts</w>
bak ery</w>
melancho ly</w>
it z</w>
b ean</w>
nol ds</w>
exi sting</w>
ru sted</w>
fresh man</w>
con doms</w>
ai ds</w>
tw o
mar cia</w>
ac tress</w>
splinter ed</w>
la mb</w>
g lowered</w>
en vi
e gy
x ton</w>
twir ling</w>
st ating</w>
bil lionaire</w>
at trac
un s</w>
squ arely</w>
ep ic</w>
remin i
mo p</w>
mo ons</w>
ida ho</w>
eager ness</w>
do g
with draw</w>
tex ting</w>
mi ssive</w>
t read</w>
sal ary</w>
ho mici
ck ers</w>
spa in</w>
e di
cla ve</w>
sca ven
rey nolds</w>
justi fy</w>
clou dy</w>
carpath ian</w>
tour na
p int</w>
se ared</w>
h inted</w>
dis concer
din o
conver ted</w>
clo aked</w>
m ice</w>
dri c</w>
deli a</w>
sa i</w>
rec order</w>
princi ple</w>
nee dy</w>
i .
feig ned</w>
f y
di er</w>
w rea
ti me
seren ity</w>
re servation</w>
hi r</w>
earth quake</w>
travel ers</w>
progra ms</w>
pen n
go b
enter tained</w>
de w</w>
dash board</w>
brit tle</w>
wo bbled</w>
jeff rey</w>
triump hant</w>
ordin arily</w>
mb ed</w>
mau reen</w>
hy de</w>
spac ious</w>
rea ders</w>
k as</w>
ga ius</w>
flat tered</w>
c et</w>
accomp an
whi ff</w>
sub st
cour thouse</w>
chancel lor</w>
ban ana</w>
ank y</w>
vir gil</w>
under statement</w>
tre sses</w>
swal lows</w>
sho re
sedu ction</w>
insul ting</w>
cor ps</w>
manu al</w>
li v
di stressed</w>
bri dges</w>
salu ted</w>
meti cul
ban ner</w>
z il</w>
perc eption</w>
li zard</w>
e sp
tri bes</w>
on i</w>
du cks</w>
blin ks</w>
sheri dan</w>
egy pt</w>
so ckets</w>
nu m</w>
mar veled</w>
a z</w>
thu gs</w>
so aring</w>
polit icians</w>
mon tana</w>
ali stic</w>
su specting</w>
spa gh
pre ce
kri sten</w>
sheepi sh</w>
in different</w>
anticip ating</w>
sur faced</w>
or gan</w>
flan nel</w>
dumb founded</w>
bl ended</w>
simp li
syr inge</w>
sy n</w>
d as</w>
cr aned</w>
bo b
be hold</w>
shr ank</w>
por tland</w>
it lin</w>
sto oped</w>
jac qu
do o
bl and</w>
ben ds</w>
li cks</w>
st rolling</w>
sp ice</w>
plea d</w>
p out</w>
ki el</w>
hy bri
exc ee
belon ging</w>
p up</w>
ni p</w>
du ti
dis k</w>
mole cu
medi eval</w>
implic ations</w>
comra des</w>
bal let</w>
ten ding</w>
l ousy</w>
ca mps</w>
' bout</w>
si ves</w>
mo ld</w>
resi dent</w>
fre derick</w>
de posit</w>
tin o</w>
ti se</w>
reali stic</w>
pri stine</w>
yaw ning</w>
flor al</w>
surren dered</w>
dwel ling</w>
com mon
ar chy</w>
expec tation</w>
by l</w>
ac ious</w>
ti led</w>
king doms</w>
ge ttin</w>
adverti sing</w>
v la
sun ken</w>
ros alie</w>
ri ad</w>
lever age</w>
inter ference</w>
f ours</w>
fif ties</w>
trans lucent</w>
regu l
per spir
request s</w>
pisto ls</w>
cata stro
apologe tically</w>
sub mission</w>
inevit ably</w>
pro te
evapor ated</w>
re z</w>
quar ry</w>
cro ps</w>
barri ers</w>
rhe tt</w>
e do</w>
chick ens</w>
cha ce</w>
car ef
inspec ting</w>
hou ston</w>
d is</w>
victor ian</w>
na r</w>
it ty</w>
grand children</w>
wa fted</w>
j ing
gr unting</w>
apologi zing</w>
kno cks</w>
electr on
sli thered</w>
di stru
de sks</w>
u ish</w>
per se
hand bag</w>
de pri
bar red</w>
war ner</w>
he ath</w>
dru m
con so
caref ree</w>
rou sed</w>
pro motion</w>
jo ints</w>
homel and</w>
grac ious</w>
tal ons</w>
pi voted</w>
me dal
ca valry</w>
sen sors</w>
produ ctive</w>
pp a</w>
a spects</w>
mu ck</w>
sp reads</w>
scor ched</w>
hal o</w>
cr ane</w>
th and</w>
spagh etti</w>
reci pe</w>
or derly</w>
asp en</w>
tow ered</w>
reas sur
pri ces</w>
gra dy</w>
dism ounted</w>
dear ly</w>
bon ded</w>
an or
mag ician</w>
deli ri
cli cks</w>
testim ony</w>
manipul ated</w>
i i
fri ction</w>
behavi our</w>
a e</w>
pre va
dev our</w>
voy age</w>
v s</w>
tail ored</w>
inva ding</w>
hor r
deb ating</w>
tra ys</w>
crun ched</w>
contain ers</w>
ju mp
home made</w>
dec eased</w>
clo a
c tors</w>
t ling</w>
sci ssors</w>
bree ding</w>
ba dass</w>
my ra</w>
expen ses</w>
cul ti
lan n</w>
en gra
ad dy</w>
poli s</w>
pic s</w>
no thing
j it
gg in</w>
zi er</w>
sti fling</w>
sa k
19 5
bur ly</w>
mou th
exper tise</w>
wi ser</w>
ser iousness</w>
liter ature</w>
unner ving</w>
sur g
so ph
shu tters</w>
poo led</w>
ce il
ann ers</w>
tor turing</w>
ri g</w>
occup ation</w>
massa ging</w>
s lits</w>
je ts</w>
in car
candl elight</w>
.... ....
tti sh</w>
kat rina</w>
hard ware</w>
sco w</w>
re servations</w>
particip ate</w>
mini mal</w>
win s</w>
mu lus</w>
mar ion</w>
charle ston</w>
bbi sh</w>
ar k
ze v</w>
virg inity</w>
so viet</w>
fil ter</w>
s .
min us</w>
jun ction</w>
hilar ious</w>
pou ted</w>
s burg</w>
r ous</w>
hin ts</w>
go wns</w>
flo rence</w>
shoo ter</w>
bap ti
senti ment</w>
p its</w>
le i</w>
in n
wal kers</w>
obsc ure</w>
cur tly</w>
alex and
~~ ~</w>
p li
mor t</w>
loa f</w>
em mie</w>
din ess</w>
bre thren</w>
baltha zar</w>
treach erous</w>
ic les</w>
bu rial</w>
resul ted</w>
dizz iness</w>
sha un</w>
roy alty</w>
r ha
night fall</w>
maxi mus</w>
explan ations</w>
andre ws</w>
humili ated</w>
ga de</w>
pe dal</w>
me sh</w>
interrup tion</w>
bur gh</w>
ul ties</w>
drea my</w>
st ages</w>
pe ggy</w>
m its</w>
introdu ctions</w>
int ments</w>
ce dar</w>
cal la
pa ula</w>
moun ting</w>
di sen
administr ation</w>
accu sations</w>
re no
fu eled</w>
bil lie</w>
sid he</w>
mk vist</w>
tro t</w>
snow y</w>
jagu ar</w>
dr ac
mother fucker</w>
dd le
fr ances</w>
ea bly</w>
con verse</w>
im minent</w>
awak ening</w>
ron ia</w>
ron in</w>
ic als</w>
inter state</w>
alar ic</w>
un finished</w>
ho ver</w>
eman ating</w>
cri cket</w>
cor ds</w>
agit ation</w>
scra ps</w>
max well</w>
ki mber</w>
free ing</w>
dist rau
bla ine</w>
shel tered</w>
pe destri
ja xon</w>
curren ts</w>
squ aw
brief ing</w>
1 3
sp u
gu shed</w>
feroci ous</w>
cha otic</w>
bu cked</w>
vie w
swee test</w>
sco ttish</w>
prin ce
dra wings</w>
assign ments</w>
al ta
soph ronia</w>
sh hh</w>
g ou
compe te</w>
al ler
4 7</w>
shre ds</w>
ec lip
work shop</w>
sho ck
ka ss</w>
del ta</w>
a a</w>
distrau ght</w>
per cy</w>
gra y
fla sk</w>
fini shes</w>
co des</w>
t ous
l ach
but to
bri m</w>
en delle</w>
di ved</w>
5 00</w>
tri cked</w>
rea pers</w>
oc curren
gar th</w>
ex or
apo calyp
parti cles</w>
o ck</w>
montgom ery</w>
mad man</w>
grena de</w>
see thing</w>
mu stang</w>
im mac
coun c
contrac ts</w>
contem plate</w>
conserv ative</w>
con vey</w>
re vul
pp e</w>
flat tery</w>
ad ul
a sia</w>
sto op</w>
flo ps</w>
bani shed</w>
whi mpering</w>
in hi
comp elling</w>
tel ler</w>
pl ank</w>
gate way</w>
defi ant</w>
brea ker</w>
sto cked</w>
kor sten</w>
ri ft</w>
pi lots</w>
path way</w>
k on
sla ps</w>
l ous</w>
kin e
ja b</w>
evo lution</w>
scor pi
bul ged</w>
re late</w>
blo mkvist</w>
war nings</w>
rhyth mic</w>
palp able</w>
it er</w>
annu al</w>
un settled</w>
priest ess</w>
ob tain</w>
f o</w>
cour ses</w>
sk in
lli ver</w>
swi ss</w>
revul sion</w>
lo go</w>
jud d</w>
demon ic</w>
cra ppy</w>
wri ggled</w>
thin ner</w>
shi pping</w>
musi cians</w>
horr ors</w>
g ence</w>
tat ors</w>
rest lessly</w>
m mie</w>
kev an</w>
dista ste</w>
worl dly</w>
unic orn</w>
jac obs</w>
el ic
ch man</w>
volunte ers</w>
st ash</w>
si ssy</w>
s con
indu ced</w>
inci dents</w>
enca sed</w>
sie ge</w>
fla pped</w>
descri bing</w>
anni versary</w>
torna do</w>
thor n
peter son</w>
bo dice</w>
bed ding</w>
win king</w>
tex t
stock ings</w>
it ching</w>
indul ge</w>
hun ch</w>
col ours</w>
val et</w>
ju tting</w>
gr ate</w>
du ct</w>
pupp et</w>
fun dam
bat teries</w>
af for
a mar
wel ling</w>
et c</w>
deci pher</w>
stra ddling</w>
exc ess</w>
car di
phi a</w>
ju icy</w>
finger prints</w>
bl aring</w>
gar d
g nar
car la</w>
addic ted</w>
i ka</w>
dic al</w>
re ign</w>
mi guel</w>
gr ati
for bid</w>
er ated</w>
bi g
nar r
massa ged</w>
fu sion</w>
ki l</w>
respec tive</w>
on ward</w>
lat tering</w>
de v</w>
de fine</w>
d anni</w>
transmi ssion</w>
thin ned</w>
re ddened</w>
tur ner</w>
ir relevant</w>
app lying</w>
din a</w>
cron us</w>
tu gs</w>
philo sophi
p ant</w>
dat ab
coun ten
con ta
ce '
pear ls</w>
mem phis</w>
ki an</w>
jo ck</w>
glen n</w>
err atic</w>
bree ches</w>
dar ts</w>
al arming</w>
aggre ssion</w>
show ers</w>
par anor
om an</w>
flor a</w>
chisel ed</w>
o x</w>
low ly</w>
li min
gul f</w>
exper ts</w>
announ cing</w>
i so
ham mond</w>
expression less</w>
de o</w>
challeng es</w>
thick ly</w>
pas sword</w>
min dy</w>
lo b
20 13</w>
v at</w>
explo sives</w>
b m
wh ere
refu sal</w>
econom ic</w>
bo died</w>
bear ings</w>
wor th
respec ting</w>
r hi
plan tation</w>
k han</w>
pa ved</w>
mil o</w>
li ca</w>
har lin</w>
for wards</w>
fle xing</w>
cylin der</w>
virtu e</w>
elev ated</w>
du el</w>
tri als</w>
sa vag
mil a</w>
gut tural</w>
leng thy</w>
pri cked</w>
sa vor</w>
ph ers</w>
pri celess</w>
ed ness</w>
au gu
ru ck
nothing ness</w>
ja me
fragr ance</w>
fo ggy</w>
end lessly</w>
no bles</w>
cur tis</w>
tru st
and ro</w>
sp elled</w>
ol ine</w>
mat ted</w>
in difference</w>
f fins</w>
defi antly</w>
cru sted</w>
toma to</w>
oblig ation</w>
n icky</w>
man tra</w>
glit ter</w>
cru z</w>
ce' nedra</w>
al es</w>
insul ts</w>
sm ond</w>
re ma</w>
li llian</w>
gra ph</w>
exper tly</w>
z ations</w>
wea ther
ve ered</w>
p ens</w>
outra geous</w>
nik olas</w>
na po
geor gi
d ances</w>
bu stling</w>
a un
th ened</w>
suffo cating</w>
under side</w>
spra ying</w>
ex tin
col ling</w>
car i
ne phili
love making</w>
lan es</w>
fur nished</w>
tal kin</w>
scul pted</w>
mar ian</w>
cla sping</w>
bar rett</w>
suff iciently</w>
st out</w>
slaugh tered</w>
it i</w>
gr ated</w>
fle xi
che z</w>
biscu its</w>
arm and</w>
whe at</w>
rand om
hesit ating</w>
car ts</w>
bour bon</w>
ta pes</w>
shrou ded</w>
sal ander</w>
s word
perio ds</w>
intu ition</w>
design ated</w>
arti facts</w>
ta h</w>
ra vine</w>
note pad</w>
legen dary</w>
ali se</w>
alas ka</w>
stra ddled</w>
ed mund</w>
diso be
are k</w>
sau sage</w>
questi on
on coming</w>
john nie</w>
gener ated</w>
bri ggs</w>
transl ation</w>
seclu ded</w>
gwen do
ul f</w>
pat s</w>
occu pants</w>
mali k</w>
juli ana</w>
cou ches</w>
yi elding</w>
si byl</w>
roof top</w>
co s</w>
as surance</w>
wi re
mi sses</w>
clo seness</w>
who le
plo tting</w>
pic turing</w>
in significant</w>
horri d</w>
ep tive</w>
clari fied</w>
step father</w>
pon dering</w>
insi sting</w>
christ ina</w>
acci dents</w>
nu dging</w>
du mping</w>
col dness</w>
bea k</w>
sco res</w>
en ig
eli as</w>
de part</w>
da i</w>
ca ffe
jo celyn</w>
goof y</w>
tat um</w>
s '
mil ling</w>
lay len</w>
in adver
a ward</w>
pa ddle</w>
dwar ves</w>
di on</w>
bre wing</w>
thro ats</w>
fa inted</w>
dish on
carni val</w>
ber tie</w>
vic iously</w>
secon dary</w>
loun ging</w>
glo ss</w>
fo ren
cre scent</w>
sign aling</w>
secur ing</w>
l .</w>
extra vag
ascen ded</w>
milit ia</w>
em my</w>
d ell</w>
pu ke</w>
morti fied</w>
inven tory</w>
ha cked</w>
desi rable</w>
it ious</w>
dream t</w>
black mail</w>
unbeliev ably</w>
re ject</w>
me te
gen es</w>
c ath</w>
stran gest</w>
po lo</w>
dor is</w>
a untie</w>
nephili m</w>
cre eps</w>
bra d
bal ancing</w>
ank a</w>
recommen ded</w>
phi la
p ane</w>
mo le</w>
ho ckey</w>
blos som</w>
ben ji</w>
ad moni
decl are</w>
tex ture</w>
ru ling</w>
repe ats</w>
que ens</w>
pi ped</w>
jone sy</w>
a mic</w>
restra ints</w>
civili ans</w>
altern ate</w>
mbl er</w>
indign ation</w>
cand i</w>
c enti
wo bbly</w>
ster eo</w>
se c</w>
ra ke</w>
er ship</w>
west on</w>
tel es
just ine</w>
inclu des</w>
in take</w>
bal ey</w>
al as</w>
stor my</w>
o .</w>
home coming</w>
cho pped</w>
8 0</w>
wo ol
er i</w>
stri es</w>
pren tice</w>
cru mbs</w>
ben son</w>
prop elled</w>
clu m
ar ches</w>
ri pples</w>
ing ham</w>
fi an
al arms</w>
ve iled</w>
const itu
comp lied</w>
alexand ria</w>
thumb ed</w>
run e</w>
phila del
per ked</w>
ma el</w>
for ties</w>
fav ored</w>
buff et</w>
tier ney</w>
slur red</w>
j ars</w>
inha bited</w>
frea ks</w>
co arse</w>
ze al
ta me</w>
sti fle</w>
scho o
ma st</w>
free way</w>
bewil der
thr ong</w>
sub tly</w>
ha gg
ag grav
brief s</w>
un a</w>
techni ques</w>
ma doc</w>
isol ation</w>
inti mately</w>
dump ster</w>
ca sts</w>
ab les</w>
un dressed</w>
im pl
con vent</w>
break down</w>
sp ar</w>
progre ssed</w>
en tation</w>
ea st
cha sm</w>
you thful</w>
mon ks</w>
mini ons</w>
lin king</w>
j ana</w>
fac tly</w>
beg in
anch ored</w>
ge offrey</w>
fe at</w>
u near
supervi sor</w>
snu g</w>
occu py</w>
mi key</w>
surve ying</w>
nic o
mb ering</w>
e i</w>
ban ter</w>
sho ves</w>
re pay</w>
lo v</w>
g g</w>
cu m</w>
alco holic</w>
ab str
no x</w>
n en
alle yway</w>
fain test</w>
ea ded</w>
survi vor</w>
heart ache</w>
es man</w>
co pied</w>
acu te</w>
philadel phia</w>
ear ne
dis c</w>
di l</w>
decl ine</w>
car ving</w>
unti ed</w>
stea dying</w>
mor y</w>
v ick
t ages</w>
ren dez
moti vation</w>
ca sket</w>
re pro
j ina</w>
broo k
sta shed</w>
em bers</w>
sw armed</w>
lo ses</w>
lind say</w>
de z</w>
ste wart</w>
im pe
cit adel</w>
u pro
stal k</w>
shar es</w>
se d
at ers</w>
shar per</w>
proce ssion</w>
lan ders</w>
ici ously</w>
ex its</w>
ru bbish</w>
me d
tru ths</w>
pec k</w>
i 'l</w>
cher yl</w>
stan ton</w>
ne ts</w>
gre et
for sa
to ddler</w>
respon ses</w>
pre ced
mar gie</w>
evol ent</w>
an at
win ter
whi s
skim ming</w>
shu ts</w>
sab ine</w>
parano ia</w>
par ks</w>
on s
mil ky</w>
book store</w>
audit orium</w>
ali ah</w>
psychi atri
off end</w>
hi tch</w>
hi ggins</w>
zo omed</w>
war dness</w>
sc ab
leop ard</w>
k ry
sm at
kn itting</w>
boy friends</w>
ven s</w>
scu m</w>
gru esome</w>
cam den</w>
twink led</w>
steal th</w>
it ous</w>
dr y
under cover</w>
ti ago</w>
refu ses</w>
psycho logical</w>
n ana</w>
foo ling</w>
fire light</w>
bea ded</w>
ie tta</w>
hi ring</w>
d ship</w>
bb s</w>
tri ckling</w>
temper ed</w>
ser a</w>
scree tly</w>
savi or</w>
missi les</w>
flan k</w>
dile mma</w>
reg ina</w>
f arms</w>
co hen</w>
se y
ol '</w>
mo scow</w>
ga ps</w>
after math</w>
tacti c</w>
fluore scent</w>
ear lobe</w>
th am</w>
sorcer er</w>
run es</w>
preven ting</w>
ca ges</w>
band aged</w>
assa il
prin ces</w>
gru mpy</w>
ar sen
hear tedly</w>
counten ance</w>
cheri shed</w>
am bu
fl inging</w>
cob ble
ad an</w>
youn g
thra shed</w>
ni sh
h r</w>
publi c
p unk</w>
merchan ts</w>
hi des</w>
he in
greet ings</w>
b b</w>
obedi ently</w>
mu sty</w>
cor rupt</w>
bag gy</w>
li ver</w>
dimini shed</w>
def ence</w>
bla ming</w>
absor bing</w>
writ ers</w>
moni que</w>
hol stered</w>
asse ssing</w>
thro ttle</w>
d jinn</w>
atre us</w>
wick edly</w>
wei ghts</w>
vege tation</w>
sav ored</w>
na vi
gal ley</w>
fian cee</w>
car y</w>
r itu
fra ud</w>
fel icia</w>
comprehen sion</w>
aur ora</w>
stri pes</w>
ma kers</w>
concu ssion</w>
bened ict</w>
ach i</w>
word lessly</w>
sha ded</w>
pro jected</w>
mari o</w>
lau ght</w>
a b</w>
pro position</w>
inter action</w>
don ned</w>
spir it
mar ius</w>
justi fied</w>
a wed</w>
re eled</w>
ha yes</w>
brea st
slu ggi
s to</w>
tra it</w>
obst acle</w>
infli cted</w>
hi v</w>
xan thus</w>
th ong</w>
ro dri
m ite</w>
e wan</w>
conc eived</w>
nin th</w>
fa des</w>
f litted</w>
displea sure</w>
crink led</w>
oppo sition</w>
func tional</w>
inher it
dol ph
buff alo</w>
twi gs</w>
til ts</w>
pi p</w>
dar la</w>
per me
di screetly</w>
bewilder ment</w>
sla in</w>
policem en</w>
loa thing</w>
insi sts</w>
gar cia</w>
bo dily</w>
gir ly</w>
bab bling</w>
accompan ying</w>
th ic</w>
o .
neu tr
look out</w>
costu mes</w>
com in</w>
hen dri
chair man</w>
bra y</w>
ru ss</w>
o y
chim ney</w>
bar nes</w>
restra ining</w>
optimi stic</w>
a eron</w>
sim pler</w>
pois onous</w>
land lord</w>
la ine</w>
blood shot</w>
be ss</w>
wel fare</w>
ther y</w>
star ra</w>
sof tening</w>
mat ch
humili ating</w>
for ge</w>
mal ice</w>
histor ic</w>
f t
ev ens</w>
summon ing</w>
embroi dered</w>
characteri stic</w>
alle gi
fla gs</w>
de du
d ough</w>
co ating</w>
bar ney</w>
adam ant</w>
achi ev
treas ures</w>
passa ges</w>
haw k
fel icity</w>
bri stled</w>
gri eving</w>
ern ity</w>
climb s</w>
viol a</w>
decor ations</w>
vin tage</w>
tra ins</w>
pla gued</w>
pi ent</w>
od les</w>
swer ved</w>
pack ages</w>
p sy</w>
gla mour</w>
architec ture</w>
sli my</w>
sa ber</w>
organi ze</w>
objec tion</w>
o ops</w>
ming ling</w>
d as
classi fied</w>
ava il</w>
in dy</w>
batt led</w>
wid th</w>
tourna ment</w>
reli sh</w>
pi g
or acle</w>
com m</w>
sing u
po ver
mon ty</w>
ma ple</w>
dr yer</w>
dissip ated</w>
d at</w>
sta inless</w>
loo sen
li vely</w>
i que</w>
hear ty</w>
fru it
exhau sting</w>
bat ch</w>
kal i</w>
go ats</w>
fil ms</w>
ex t</w>
del eg
2 00</w>
negoti ate</w>
ha st</w>
ha r</w>
dar mik</w>
cli mate</w>
ry n</w>
ju g</w>
gil lian</w>
deca y</w>
volcan o</w>
treas on</w>
sc he</w>
ph ar
mark ings</w>
k as
hoo die</w>
e v</w>
cal mer</w>
amb ition</w>
ste st</w>
ra bid</w>
neigh boring</w>
go on</w>
cro pped</w>
bol dly</w>
t ities</w>
represen tative</w>
thunder ing</w>
sa bot
na me
m ant</w>
gener ator</w>
exer tion</w>
de acon</w>
ra p</w>
lo sses</w>
fro do</w>
adol in</w>
tu x
reha b</w>
og g</w>
exp elled</w>
wi st
chi ded</w>
bil lions</w>
ana sta
dimen sions</w>
cy rus</w>
v ened</w>
plea sing</w>
fre ddy</w>
com ic</w>
ac cen
wr on
sp icy</w>
mck ie</w>
ha vo
yel p</w>
ri ghted</w>
ma ia</w>
chem icals</w>
trans fixed</w>
seph renia</w>
outsi der</w>
d win</w>
rendez vous</w>
outra ged</w>
ons laught</w>
suit cases</w>
: 0
to lliver</w>
fru its</w>
acknowle dging</w>
bicy cle</w>
mar lon</w>
franc o</w>
bi ker</w>
squ ad
pover ty</w>
kidna p</w>
jer ky</w>
hand shake</w>
floor boards</w>
flo y
un to</w>
ang rier</w>
ag h</w>
pro be</w>
th ad</w>
sa gging</w>
regar ds</w>
por table</w>
new found</w>
ki p</w>
hi ve</w>
havo c</w>
ge es</w>
con sol
comp on
ar mp
rein forced</w>
j inny</w>
ex tracted</w>
el bowed</w>
da k</w>
sha kily</w>
recogni se</w>
pin ching</w>
mis understanding</w>
li mping</w>
g ali
clu eless</w>
boo ted</w>
ado le
mar ily</w>
lli s</w>
camp fire</w>
ta way</w>
subur ban</w>
l ness</w>
impas sive</w>
bo xing</w>
mar ilyn</w>
ge ogra
feat ured</w>
e k
dd ening</w>
co operation</w>
tre pi
la dy
su stained</w>
condem ned</w>
spo tting</w>
er able</w>
crack ers</w>
conj ured</w>
patri cia</w>
lea ps</w>
iri ses</w>
host ility</w>
her r</w>
col oring</w>
aband oning</w>
20 12</w>
steri le</w>
ob liter
d yed</w>
accur ately</w>
passion ately</w>
m angled</w>
w him</w>
lemon ade</w>
le ant</w>
fer ocity</w>
distinc tive</w>
conventi onal</w>
writ es</w>
tran qu
gis bo</w>
demonstr ation</w>
be tro
am ira</w>
n ous</w>
en twined</w>
wre stled</w>
snat ching</w>
mar red</w>
fr inge</w>
coa ster</w>
ti mer</w>
fran z</w>
di xon</w>
it ation</w>
hair cut</w>
dr ones</w>
door frame</w>
cu tter</w>
mista king</w>
merri ll</w>
lunch time</w>
hungri ly</w>
han gover</w>
ble achers</w>
sw oo
ry ker</w>
v ans</w>
sc rubbing</w>
qu eri
ka h
gun s
epi logue</w>
non cha
me ts</w>
brai ded</w>
bath tub</w>
tin iest</w>
ssi ble</w>
no ble
me ssi
foo ds</w>
ar t
zi ed</w>
secre tive</w>
orphan age</w>
swe ats</w>
strai ght
ra mbling</w>
noncha lantly</w>
i mo
ecst atic</w>
cont ag
en cing</w>
bon fire</w>
l ent</w>
gas oline</w>
discer n</w>
camoufla ge</w>
ca itlin</w>
ag an</w>
ken zie</w>
con tains</w>
over powering</w>
inherit ance</w>
dor oth
tip toes</w>
ti lity</w>
jan son</w>
illumin ation</w>
dra gs</w>
conqu er</w>
at i</w>
ab bot</w>
smi c</w>
rabb its</w>
puck ered</w>
com promised</w>
al ya</w>
un welcome</w>
stin king</w>
smash word
re solution</w>
gru mbling</w>
wa ge</w>
vani shing</w>
swa n</w>
sul try</w>
rose mary</w>
medal lion</w>
g el
fel low
fe ed
smo thered</w>
mat ri
gh ou
fil th</w>
egyp tian</w>
awa ken</w>
ti ghtens</w>
mar t</w>
clu stered</w>
boy ish</w>
ank h</w>
volu mes</w>
smashword s.com</w>
s ach
mu mmy</w>
infer no</w>
chi cks</w>
wi ggle</w>
war ran
seat belt</w>
rel ation</w>
he eled</w>
assass ination</w>
vege table</w>
vani a</w>
stor y
ret ort</w>
de structive</w>
cover t</w>
cla mbered</w>
bio logy</w>
mc car
gener als</w>
conc ei
tan gible</w>
syr up</w>
sea s
or ts</w>
ling ton</w>
lay out</w>
id i</w>
i ii</w>
gui des</w>
scor ching</w>
sav ings</w>
licen sed</w>
invest ed</w>
cardin al</w>
bm w</w>
pi ssing</w>
jon i</w>
impro vement</w>
hen ri
doroth y</w>
deci dedly</w>
cra fted</w>
war ped</w>
ste ward</w>
predic t</w>
cha p</w>
wi elding</w>
ma m
lanter ns</w>
in cess
wear iness</w>
shore line</w>
sa mson</w>
nic o</w>
bor dered</w>
ver b
pen tag
fli msy</w>
fl our</w>
comp act</w>
be mused</w>
ma shed</w>
lear nt</w>
du sting</w>
bi o</w>
al on
att ers</w>
st ina</w>
sea sons</w>
om e
grim acing</w>
tox ic</w>
nou ri
hon da</w>
h r
wo ve</w>
lo p
li mp
tent acles</w>
sur able</w>
sea m</w>
poin ty</w>
over flowing</w>
je anne</w>
cra ve</w>
out doors</w>
ju dic
crack le</w>
publi city</w>
mech anic</w>
la mb
jose f</w>
i ana</w>
cul len</w>
con tracted</w>
oa ks</w>
glimp ses</w>
custom ary</w>
ba the</w>
a ve</w>
oo zing</w>
my ron</w>
g lee
fo oth
pro phe
mir acles</w>
bo thers</w>
twi g</w>
tri s</w>
ra f
ol lie</w>
ne v
hi c
ha zard</w>
blo omed</w>
vi be</w>
tal ion</w>
p lowed</w>
iss ance</w>
go i</w>
cyn ical</w>
al mighty</w>
a men</w>
vel ly</w>
set up</w>
pla u
lo yed</w>
condu cted</w>
angeli c</w>
ca mar
3 4</w>
with stand</w>
valu ed</w>
so ot</w>
eli hood</w>
di me</w>
const ance</w>
sak ura</w>
smu gly</w>
sh ined</w>
po et</w>
coyo te</w>
com pose</w>
whi ps</w>
v ingly</w>
immen sely</w>
di gger</w>
fi ber</w>
do zed</w>
acqu ire</w>
scan ner</w>
j in
ga un
eu phor
deme tri</w>
cubic le</w>
9 11</w>
ra j</w>
3 7</w>
tr it
ple dge</w>
ro xy</w>
reverber ated</w>
me yer</w>
tous led</w>
stal ling</w>
ger ry</w>
envisi oned</w>
bra very</w>
angel ine</w>
ob serv
mo bi
fidge ted</w>
ve hem
p ac
guar d
dru mmed</w>
al oft</w>
trou ble
resul ting</w>
na issance</w>
mar keting</w>
es capes</w>
as ing</w>
amb itious</w>
trou bling</w>
sur mi
summ ers</w>
clu ttered</w>
pu ffing</w>
exi le</w>
win ters</w>
un harmed</w>
re stor
ca ged</w>
unner ved</w>
pre servation</w>
cir cul
ang ered</w>
stan ts</w>
disli ked</w>
sin u
shre w
s id</w>
rue fully</w>
ly sander</w>
ka h</w>
isa iah</w>
introdu cing</w>
ga mble</w>
bil lowing</w>
re bu
r acked</w>
n d</w>
forsa ken</w>
fla med</w>
sculp ture</w>
hen rik</w>
en thr
eff iciency</w>
conten ted</w>
bun dled</w>
un e</w>
tack led</w>
si dney</w>
sc rolled</w>
predat ory</w>
ex iting</w>
au d
trepi dation</w>
cap tains</w>
nor m</w>
e w</w>
congreg ation</w>
gob let</w>
san tiago</w>
rea h</w>
re pairs</w>
om er</w>
er nal</w>
test ament</w>
stom p</w>
s ville</w>
ru e</w>
plan ks</w>
ligh thouse</w>
horse back</w>
ex tern
a jar</w>
stal led</w>
in famous</w>
fu s</w>
su sie</w>
su es</w>
ro sal
redu ce</w>
beep ed</w>
ter ri</w>
sto ic</w>
moo dy</w>
caffe ine</w>
plu ck</w>
ni sha</w>
gro ped</w>
demonstr ate</w>
cont ing
chi pped</w>
memor ized</w>
fi ddled</w>
confir ming</w>
al titude</w>
trans form</w>
shrie ks</w>
re ig
r d</w>
he idi</w>
perspir ation</w>
notor ious</w>
mair i</w>
lli c</w>
k is</w>
journ alist</w>
beck oning</w>
be having</w>
san ds</w>
li shly</w>
enchan ted</w>
d gy</w>
can teen</w>
tra de
stri goi</w>
nin ja</w>
f ences</w>
de smond</w>
cin der</w>
bo som</w>
a ine</w>
sle eps</w>
ob noxious</w>
l '
kal ten</w>
inadver tently</w>
fore bo
dami an</w>
sub missive</w>
ri el</w>
gener ate</w>
def tly</w>
north west</w>
gr y
author ized</w>
spec tators</w>
refle x</w>
ma bel</w>
da x</w>
un ci
ro meo</w>
ren zo</w>
it ched</w>
du h</w>
jacqu eline</w>
hu stled</w>
dismi ssively</w>
bar ing</w>
affection ate</w>
intru sion</w>
ax el</w>
alta ir</w>
ti mber</w>
ling erie</w>
din ners</w>
che ery</w>
ha pha
bul bs</w>
try stan</w>
puni shing</w>
sen si
ea fter</w>
a vel
neck line</w>
ar do</w>
sti let
die sel</w>
va ulted</w>
ro bbery</w>
reassur ingly</w>
force ful</w>
as sor
ur ban</w>
marvel ous</w>
ic ious</w>
fir s
dev ouring</w>
con no
car l
asse ss</w>
den ces</w>
rein for
pe tri
p r</w>
na meless</w>
moti v
bit ches</w>
as set</w>
tab by</w>
len k</w>
ki er
sion ate</w>
ry land</w>
ja el</w>
flou rish</w>
dani ka</w>
at us</w>
accu se</w>
mu le</w>
ly le</w>
firs thand</w>
far thest</w>
bea d</w>
mi ra
carn age</w>
ali ght</w>
al ana</w>
sel essly</w>
mi ko</w>
lo tta</w>
gee z</w>
g inny</w>
awk wardness</w>
random ly</w>
ig no
slu g</w>
mel inda</w>
lur ch</w>
lat es</w>
celebr ated</w>
ver dic
spir aling</w>
sa di</w>
man ages</w>
titi ously</w>
se wing</w>
fur n
flin t</w>
rack et</w>
hypnoti c</w>
ha te
enti cing</w>
1 st</w>
tw ea
sha p
flat tering</w>
ni bbling</w>
le ments</w>
in vinci
hu mid</w>
good byes</w>
gna wing</w>
glu e</w>
evol ved</w>
cana dian</w>
tis sues</w>
similar ly</w>
pru dence</w>
clemen tine</w>
pa vi
mur dering</w>
in ching</w>
gra phy</w>
myr nin</w>
mai sie</w>
fu mes</w>
electron ics</w>
ca dil
zz o</w>
wi sps</w>
tre spas
circum stance</w>
tea m
str ate</w>
presu med</w>
g it</w>
fren zied</w>
band its</w>
you 're</w>
worl d
safe st</w>
k us</w>
in human</w>
exhau st</w>
er nest</w>
at ingly</w>
terri fic</w>
sk el
la ird</w>
hospit ality</w>
der y</w>
de flated</w>
el in
confi ded</w>
professi on
ju tted</w>
inqu iry</w>
dubi ous</w>
re sear
mon aster
kha ki</w>
gl y
argu s</w>
mi dair</w>
g ore</w>
dimen sional</w>
coa xed</w>
ac cess
sli cked</w>
new born</w>
elem entary</w>
dur nik</w>
arch ers</w>
thin kin</w>
star ve</w>
re jo
jen n</w>
em a</w>
recru it</w>
lo ki</w>
go ons</w>
extr act</w>
th on</w>
phenomen on</w>
dor o
bru tally</w>
z an</w>
tur quo
ti ghtness</w>
strang le</w>
se mblance</w>
plat eau</w>
displa ys</w>
chee se
wa stel
el in</w>
ed gy</w>
ti mid</w>
roof s</w>
o drade</w>
bur gers</w>
ad dison</w>
wi ggling</w>
tru ce</w>
mul titude</w>
mm mm</w>
em press</w>
disturb ance</w>
assor tment</w>
trust worthy</w>
pump kin</w>
pre cip
hea ve</w>
gargo yle</w>
fi anc
droo l</w>
disting uished</w>
chest nut</w>
ca e
b ounds</w>
ane w</w>
visi bility</w>
su stain</w>
procee dings</w>
phi n</w>
i do
finger nail</w>
en circled</w>
ea ge</w>
clut ches</w>
bon net</w>
wonder fully</w>
conspic uous</w>
certific ate</w>
past ure</w>
summ it</w>
spee ds</w>
ma ura</w>
empha tically</w>
blat ant</w>
acti c</w>
vide os</w>
sla shing</w>
positi oning</w>
o z</w>
confid ential</w>
ci st</w>
sc ans</w>
ar ca
addic t</w>
tra i
swat ted</w>
subsequ ent</w>
lun ge</w>
villa in</w>
ta i
la pped</w>
hyster ically</w>
a wait</w>
thro aty</w>
pro ves</w>
la shing</w>
decor ating</w>
cont ext</w>
brun o</w>
y uri</w>
vir tual</w>
turquo ise</w>
mea suring</w>
imp ec
hair line</w>
wha le</w>
vibr ations</w>
pan icking</w>
gru dgingly</w>
grote sque</w>
ene tra
cu ddled</w>
bu ckets</w>
tur er</w>
spr inting</w>
numb ness</w>
la by
fore ig
astoni shing</w>
sque aling</w>
si ps</w>
rever ie</w>
infin itely</w>
imp enetra
e du
s ate</w>
r ural</w>
f anny</w>
cla mmy</w>
c ey</w>
3 6</w>
syl vania</w>
o ids</w>
kne sses</w>
disagre ed</w>
chu bby</w>
tur f</w>
popul ated</w>
ob tained</w>
f end</w>
di version</w>
thr on
th o</w>
sp ends</w>
ro les</w>
lay ton</w>
henri etta</w>
es ther</w>
zz ard</w>
sto re
scur rying</w>
rot ated</w>
ra ils</w>
r ounding</w>
pro logue</w>
qu eu
m ness</w>
kilo meters</w>
guns linger</w>
ad joining</w>
wer es</w>
to ken</w>
stea d
sha bby</w>
fr an</w>
napo leon</w>
juli o</w>
car elessly</w>
arti fact</w>
ur ges</w>
t '
signific antly</w>
re collection</w>
pe g</w>
im migr
hy st
cho pping</w>
cen tric</w>
u u
ra w
pag an</w>
int el</w>
ha dley</w>
emp t</w>
conven tion</w>
begin nings</w>
v .</w>
r anc
paranor mal</w>
o v
is man</w>
hot test</w>
embr acing</w>
co x</w>
cap turing</w>
ar c
apprehen sive</w>
jec ting</w>
involun tary</w>
cheek bone</w>
he mi
ha h</w>
chan ted</w>
jud ges</w>
engag ing</w>
en compas
tra pping</w>
th ar
sh in
forth coming</w>
for lor
c co</w>
bott led</w>
tha yer</w>
san chez</w>
in form
anasta sia</w>
lor ie</w>
interc ep
thro p</w>
sea mus</w>
pp in</w>
lor dship</w>
inter vals</w>
han tly</w>
gen der</w>
ver sus</w>
triump hantly</w>
proce ssed</w>
logi sts</w>
stret cher</w>
ro k</w>
ha mish</w>
dou gh
navi gate</w>
ger ard</w>
pa ddy</w>
expec ts</w>
cae sar</w>
boar d
el and</w>
e a</w>
de cks</w>
cre w
car nal</w>
wea knesses</w>
thu dded</w>
stiff en</w>
erran ds</w>
the ore
my riad</w>
dra u
sol ace</w>
pe d
le vit
laby rin
g lock</w>
car cass</w>
st us</w>
sk a</w>
men tary</w>
dedic ation</w>
d ill</w>
air borne</w>
a ina</w>
ath ena</w>
ting les</w>
plan ner</w>
oo zed</w>
gr itting</w>
dri fts</w>
un fold</w>
loo ps</w>
li e
intel li
deep ening</w>
continu ous</w>
vor tex</w>
dismi ssing</w>
chri sty</w>
allegi ance</w>
ster ous</w>
eu gen
a stri
ten ants</w>
so pho
ri co
re conci
ma iled</w>
e ther
dru mming</w>
cra z
ceil ings</w>
voic email</w>
to ff</w>
minu m</w>
ja w
i pod</w>
en ab
cryp tic</w>
cla mation</w>
car ton</w>
car pen
aim lessly</w>
wi stful</w>
trans late</w>
stu d</w>
elimin ated</w>
cou pled</w>
colon ies</w>
co als</w>
boun cer</w>
acti vely</w>
yi eld</w>
win nie</w>
un dress</w>
ti ckle</w>
rece ded</w>
p lic
ho e</w>
slo pes</w>
si zzling</w>
resen ted</w>
ly ght</w>
as a</w>
up setting</w>
re ka</w>
mor g
ing en
hospit als</w>
bren dan</w>
abdu cted</w>
un folding</w>
thunder ous</w>
techn ician</w>
oa ka</w>
man tle</w>
lou isi
law son</w>
la m</w>
ja ma
i sts</w>
equ ation</w>
ta x
sto ols</w>
long bow</w>
horri fying</w>
har den</w>
forebo ding</w>
dow ns</w>
wil ling
ti veness</w>
kri sta</w>
irrit ably</w>
impenetra ble</w>
ar is</w>
3 0
sar i</w>
mid ity</w>
el sie</w>
cr ater</w>
squ int</w>
shir tless</w>
qu en
eg ory</w>
cat egory</w>
tacti cal</w>
sta ining</w>
scenari os</w>
sau cer</w>
list ing</w>
fur ther
pri sc
gg ly</w>
ea siness</w>
butto cks</w>
burea u
analy ze</w>
alu minum</w>
9 0</w>
valu es</w>
tho od</w>
sh run
re lin
co lette</w>
ch lor
shi pped</w>
interven tion</w>
enjoy able</w>
se ous</w>
ho bby</w>
gra vit
earne stly</w>
di mple</w>
dab bed</w>
bla sts</w>
u m
scri be</w>
na vel</w>
iron ically</w>
capit ol</w>
tro phy</w>
je b</w>
vick i</w>
qua int</w>
nat alya</w>
no wa
in ty</w>
hy dro
ed ging</w>
domin ance</w>
communic ating</w>
y k</w>
vi l</w>
itu des</w>
head phones</w>
eu reka</w>
enti als</w>
cor bin</w>
clar ice</w>
bo oth
ter i</w>
me ss
je an
treat y</w>
serge i</w>
p iling</w>
myr tle</w>
discu ssions</w>
appo intments</w>
viet nam</w>
t .
side walks</w>
go o</w>
f low
acknowledg ment</w>
sit ter</w>
psycho tic</w>
nes see</w>
lin dy</w>
hyst eria</w>
do e</w>
back stage</w>
lu scious</w>
demonstr ated</w>
cru mble</w>
the on</w>
perse phone</w>
gnar led</w>
cu lly</w>
ch rome</w>
ban quet</w>
ten nessee</w>
hu mor
atten tive</w>
ash ore</w>
adv ances</w>
ki mb
cauti oned</w>
war lock</w>
relent lessly</w>
majest ic</w>
ho bbled</w>
formu la</w>
dispat ched</w>
desol ate</w>
alex ei</w>
la ken</w>
to o
so les</w>
ro ts</w>
miracul ously</w>
en tran
bu shy</w>
ban ker</w>
a kin</w>
re paired</w>
cred its</w>
sli me</w>
refu gees</w>
rami rez</w>
g ically</w>
conc ep
char ts</w>
p ours</w>
o logical</w>
mor gue</w>
lo we</w>
ta med</w>
execu te</w>
verdic t</w>
un real</w>
st ation
need less</w>
list ens</w>
da vey</w>
un doing</w>
eng rossed</w>
divi de</w>
deli ver
rober ta</w>
na w</w>
jo lly</w>
hop elessly</w>
door man</w>
4 4</w>
way ward</w>
si mi</w>
s witches</w>
ra pped</w>
jac kass</w>
chandeli er</w>
sh red</w>
p ans</w>
o ily</w>
g iles</w>
dar a</w>
whoo sh</w>
tr inity</w>
pan ther</w>
oppon ents</w>
fear less</w>
down hill</w>
cri ppled</w>
cab les</w>
bo wels</w>
veri fy</w>
un fur
st one
st al</w>
rec y
fa stest</w>
aa aa
zi pping</w>
wan der
lo gged</w>
k ro
i z</w>
sse y</w>
p att
gor ge</w>
gha stly</w>
depen dent</w>
shar ks</w>
pro p</w>
admit tedly</w>
stab ili
sob ered</w>
sha wl</w>
rum maging</w>
i shly</w>
f ates</w>
assi sted</w>
ren na</w>
lo p</w>
intellec tual</w>
disor der</w>
co il</w>
reg al</w>
pat sy</w>
har t
ex changing</w>
emplo y</w>
dan g</w>
cra b</w>
willing ness</w>
v and
sha dy</w>
mour n
me w</w>
louisi ana</w>
inva de</w>
integr ity</w>
4 2</w>
ra ins</w>
lo ch</w>
fra yed</w>
bar rage</w>
with ered</w>
six ties</w>
pri vy</w>
appreci ative</w>
accur acy</w>
occur s</w>
im provi
bu ses</w>
boo st</w>
assi stants</w>
ar ma
v age</w>
un armed</w>
ra king</w>
question ingly</w>
ob si
retri bu
k r
insist ence</w>
ic ing</w>
accen ted</w>
snea ked</w>
sha i</w>
horizon tal</w>
flat s</w>
sa xon</w>
li ze</w>
kar i</w>
aga tha</w>
whi ch
tur bul
sp aced</w>
restri cted</w>
obst acles</w>
gur ney</w>
grea ves</w>
eless ness</w>
el vi</w>
af gh
or ous</w>
maxi mi
la bs</w>
k enly</w>
gru dge</w>
gau ze</w>
with dra
relin qui
en er</w>
to pics</w>
sn acks</w>
sho cks</w>
reci pient</w>
j e</w>
er o</w>
bic ep</w>
so s</w>
sa belle</w>
nu n</w>
my stical</w>
de a</w>
cr iti
tem pest</w>
spar se</w>
r ally</w>
gil bert</w>
du res</w>
distribu ted</w>
confu se</w>
wor ri
p ly</w>
on o</w>
frea ky</w>
bla ire</w>
run ners</w>
pal mer</w>
no ose</w>
knu ckle</w>
ha cking</w>
em ble
bur gun
qu ic
periph eral</w>
ony x</w>
invol ves</w>
flu shing</w>
scra wny</w>
over look</w>
in sinu
gri lled</w>
favor ites</w>
une ven
t roo
pri or
juli ette</w>
gro ggy</w>
fun ding</w>
cho ir</w>
ba ke</w>
re per
new s
lur ked</w>
hu inn</w>
fr at
to yed</w>
[...]
